/**
  ******************************************************************************
  * @file    maintenance_data_params.c
  * @author  AST Embedded Analytics Research Platform
  * @date    2025-03-24T22:07:23+0100
  * @brief   AI Tool Automatic Code Generator for Embedded NN computing
  ******************************************************************************
  * Copyright (c) 2025 STMicroelectronics.
  * All rights reserved.
  *
  * This software is licensed under terms that can be found in the LICENSE file
  * in the root directory of this software component.
  * If no LICENSE file comes with this software, it is provided AS-IS.
  ******************************************************************************
  */

#include "maintenance_data_params.h"


/**  Activations Section  ****************************************************/
ai_handle g_maintenance_activations_table[1 + 2] = {
  AI_HANDLE_PTR(AI_MAGIC_MARKER),
  AI_HANDLE_PTR(NULL),
  AI_HANDLE_PTR(AI_MAGIC_MARKER),
};




/**  Weights Section  ********************************************************/
AI_ALIGNED(32)
const ai_u64 s_maintenance_weights_array_u64[39619] = {
  0x38a32201397fcc41U, 0x39b98e2fbb3373ffU, 0x39ec8929baca021dU, 0xbb34270938494439U,
  0xbaae5bb1b841c94eU, 0x39b4dcd539dd411dU, 0xbabbd2223b281d04U, 0x3994db573b8d755cU,
  0x3b2c8db039a026d5U, 0xbae466bab8915953U, 0xb7c3570b39203abeU, 0xba99ee0e3b2b90dcU,
  0xbc183b12baeede27U, 0x3aa34d97bbb7113eU, 0x3c5dc3173c356901U, 0xba809681babd2266U,
  0x3c81fcfc3ab6c1f7U, 0x3a5cac4dbc46bdb0U, 0xbb3ab68339d6ee0dU, 0x3a14e669ba818689U,
  0xba82c8ccba29006bU, 0xba97d8043aa1e9bfU, 0xbb08de0cbc3fd10dU, 0x3b041877bb1b43a6U,
  0x3c2d60a23b7eb679U, 0xb88363ca3852317dU, 0x398cd557bb317b82U, 0xb8c8e539bb231262U,
  0xbae2c778b8ff83f7U, 0x3c1080763b57185fU, 0xba1e6c56ba514b26U, 0x3b46bb8d3ad66d86U,
  0x3a0f3559bc312103U, 0xbb31b51539d2818aU, 0x3a36b5bd3a58db85U, 0xbb3b93a5bb3b1f2fU,
  0xba760aee3af4abc5U, 0xba6435363c2f3660U, 0x3afdae97ba81e84bU, 0x3c2828c6b9ef740aU,
  0xbb7974a7bbaed848U, 0xbc191e803ad2258aU, 0xbb5514b63c27f87cU, 0x3a15c9f4bb018761U,
  0x3c5e1f353bfb37dcU, 0xb860a409b8320765U, 0xbab3b2d9bb28e56fU, 0xbb1cd3113b8b7b02U,
  0x3b20566fbb092c1bU, 0xbbd779033ba16e2fU, 0xbad8431abaaf4f59U, 0xbb76ec133afe76dcU,
  0x39d42930bbfe827fU, 0x3b33783539ca4ac9U, 0x3a78d1503a9b96a6U, 0x3a4eb81b3ad65619U,
  0xbb08ebc8bb3ac34cU, 0xbb8c534d3a2e44b1U, 0x3b0d9b57bc357dc0U, 0x3b1c8011bc5b16ebU,
  0x38530c4538dca966U, 0x38602662bb300e9dU, 0x39e7d656badf320fU, 0xba25d651b9534da9U,
  0x3c520019bbd2c4ceU, 0xbc0f7b33bd41c3d9U, 0x3e04fbee3bb0eaf8U, 0x39f4c5023c04fb31U,
  0x3b28602f39d8f9efU, 0xbb07c406ba8070f8U, 0x38888643393637deU, 0x38f659cdbb3074b9U,
  0xbcb6c420bacabbb7U, 0xb79250ae3b25cbcbU, 0x3c5b74083afc1fe6U, 0x390ba8f0398321e3U,
  0xb9803133bb31021bU, 0xb7804a36bab7cb08U, 0xbae47848b79ab148U, 0x3c0e42ec3aa83665U,
  0x394ebeee398072c8U, 0x39bd3a143b2be421U, 0x3b986ecebabcc6feU, 0x3a57118c3b84f769U,
  0xbbff3e20bd08f4d2U, 0xbb7026943dcf3e40U, 0x3e08e49e3ba81b51U, 0x390ba9d23ba9b15dU,
  0xbb31c90fb6d3f8b7U, 0x3b348ee1bad34e09U, 0xb84dd880b907f499U, 0x3b016e5f3b324dc6U,
  0x39c94578bb11e3edU, 0x3b2ebc7739a0c010U, 0x3b4b0260b974df43U, 0x38ace9753920ba34U,
  0xb98ae6513b2d782fU, 0xbbaeed64bb13a181U, 0xb9acf36bbb0797b2U, 0x3c57a1d13b00d92aU,
  0xbda9afc8b9a9bd45U, 0x3ddd762e3bc897fdU, 0xbc0e58af3acb447cU, 0x388d8a41bb9a5f7aU,
  0x3c5b44393c1e4a14U, 0x3a77dab03bc227e6U, 0x3c05a3b0bb228ee4U, 0x3914f697ba491f39U,
  0xbb30c8253872bd4dU, 0x3ad622afb9b8e27cU, 0xbf733cce3f6a2ff8U, 0xb884b6f33b032a6dU,
  0x3971aeafb9af4428U, 0xbb32fb25388cdb80U, 0xba9b031c39d8fb31U, 0x3b27bbbf3b0da6a6U,
  0xbc28a86d3b071bd7U, 0x39044ea9bba1cbc3U, 0x3b28266338ea8987U, 0xbb6dccb43a701098U,
  0x38e97887395a54a3U, 0x3967c7fabb343910U, 0xbc72eab0ba8ef56fU, 0x3b2cdaecbc34ac8cU,
  0xbbc38c703c102053U, 0x3a2084813a8e5439U, 0xbb599fe83b28067aU, 0x38ecd13cba8e67e3U,
  0xbb31e88236adeff8U, 0xbaecc68a373b743cU, 0xbe4d3f053e6536a3U, 0xbdf7171bbb9fd4a3U,
  0x39b96bab38347571U, 0xbb382700394190fbU, 0x3ab9be53baa0905bU, 0xba0c094bba473d1eU,
  0x3afb5ead3abf60c2U, 0x3c0686f4bc3328cdU, 0x3a3a79df39a4f0ecU, 0xbc31b58cbca8eaabU,
  0x39899dde3a3b447aU, 0xba235edbbb35c871U, 0x3db99e06ba9a1a1dU, 0xbadd2dc83cfe76d9U,
  0x3a62e0bd3ca6c98bU, 0xba1cb4ccba32385eU, 0x3b192b703b1dd24eU, 0xba811f42bbd75e75U,
  0x3abdd3b6ba305968U, 0xbc32cab8b9bd4910U, 0xbad21a5fbad3735aU, 0x3bb710593b0eddf3U,
  0x388e77993c2f0a42U, 0x3b2c087eb7d8b9acU, 0x3b7ff8aa382c1c38U, 0x38ee369d39ab2765U,
  0xb837c62abb3653c4U, 0x3b3e7077ba5c6c5bU, 0xbb3f99f33aaae50cU, 0x3a714666bb8023cdU,
  0xbbda5f05bb631f64U, 0x3b5e8a20b99b539dU, 0xba0486663c56eb11U, 0x3b23bd91b99de3adU,
  0xbb8a7e4b3ab8e975U, 0xbb01510ebb157c29U, 0x3be8339f3b2adce5U, 0x38ec3ad9bbb8d9c6U,
  0x3b2cc710b98dcbf0U, 0x3b3881ebba7cdd4dU, 0xbad37614ba8cab62U, 0x3acb1d6e3ac58743U,
  0x39d0bba1bc2fa0baU, 0xbb3490ad39734004U, 0xba7f225338ff3f77U, 0x3d4fab29bd2ab89fU,
  0x3ddea2ea3bc3415bU, 0x39ca7bc73b29222bU, 0xbb3021b1389fd875U, 0xba68c79739aa64dfU,
  0xba757d41ba81bda9U, 0x3a8b30663b0fe113U, 0xbbe6ff303c14fbedU, 0x3b42eb023ad25b74U,
  0x3c34b1eb3cea61feU, 0xb8aa2dc639cbcbecU, 0x388de804bb31f9a9U, 0xbacfc9f2bb1fc76cU,
  0x3a1dae26baf85d1aU, 0x3c6020bf3c1223baU, 0x3be655153cf07337U, 0xbc6b9b85bb55d21aU,
  0x39bf81d3b7bc9f32U, 0xbb33eda139232e12U, 0x3a6e2557b9d5fde6U, 0xbb7eecfdbc189cb0U,
  0xbbcbaba1b9ee0767U, 0x39cf7d443c570d9eU, 0xbb3194ff39296373U, 0x3a30fdc6b92c9755U,
  0xbd14261ebdba2495U, 0x3d7824fe3b42ed54U, 0x3a02e8243c5cfb18U, 0xbb269c8cb944d627U,
  0xbb0b1ae93b58d83fU, 0xbb3b3864bb2cd028U, 0xbc28ea123ac2024fU, 0x3d86ef3c3c2eb35fU,
  0x3b97e1a73caeebeeU, 0xbb3cd5bb3df76261U, 0xb6ef5930386fd3edU, 0x392792f23b25b2b9U,
  0x398fa5e8bb9063c9U, 0xbb313f73384849d6U, 0xbaaaf27e38abc06eU, 0xb8e5d072b934ef18U,
  0x39d040a03b21419bU, 0x39f36968bba87842U, 0x3b2c5daa39a90bffU, 0xbabbb8f7385abf01U,
  0xbb535603bad15823U, 0x3b509be4b8696e27U, 0x3b7b45583c5a241cU, 0xbab004b13a469bbfU,
  0xbc3c9ce53be88004U, 0xb98660f0b88dfcf2U, 0xb8d71b193b31be59U, 0x3df928ad3a71eb1aU,
  0xbbb050ff3c0f409fU, 0xba8e35bfbe0b6e8aU, 0xbab8e9f3bb316e5bU, 0x3bf2b49f3af19512U,
  0x3ac26b57bc2ac98fU, 0xbb142abab7ffa774U, 0x3b2670473c0cae96U, 0x3889321839c155a8U,
  0xb980423abb379b6eU, 0x39c3aaceba81e1fdU, 0xbb3313683910226cU, 0xbaa3f3c3b9ba72ecU,
  0x3b87af423cce076eU, 0xbd9c358cbb87c2cfU, 0x3be8ede3bc3d1f9eU, 0x3b9f10a63d367454U,
  0x3bb87ba93e05620cU, 0xb8f871cbb9920eccU, 0x39621bb63b1f58cbU, 0x3944b2dcbbaa3ea3U,
  0xbb368f7d38b93617U, 0xbabf8113397c2bedU, 0xba54be16baa8a8f3U, 0x3ba7bf453b073414U,
  0x3a3daf5a3c2f5cecU, 0xbb32490c3995eb47U, 0xbad83f68391bc4d5U, 0x3caa9c0bbd61a410U,
  0x3e03f09a3bbcfe48U, 0x3988719a3bf995c2U, 0xbb33767c390940a3U, 0x3a9a89d1ba247734U,
  0x3a3c6f5b3a4b15b3U, 0xba0ceb4d3b33945eU, 0x3ba0e72e394b043dU, 0x3b25aca63b668d59U,
  0xbadceae6bb734bf6U, 0x37976ed4394d6013U, 0x393403e7bb324e5eU, 0xbb05ff78ba916264U,
  0x3b0536cebb04c23eU, 0x3c2afe303a85f05fU, 0x3a8d80c5b991300bU, 0xbd4b742db94125d4U,
  0xbd033c3ebc220836U, 0x3b92c5d4bc9e3df7U, 0xbb942e553d903099U, 0xb92b773a3a95efcdU,
  0x3c0cca6a3b48de32U, 0xb94072a73a42a768U, 0xbb2bd6d9b9b585b0U, 0x3b904e04bb53417fU,
  0xbbb748103d98ff4bU, 0xbe02a511bb89677cU, 0xba905a383a07f230U, 0x3ab738a7ba952d8bU,
  0xbc3130a5ba7d8bafU, 0xbf809e813f79c377U, 0x3ad090063af55f65U, 0x38ea73a3ba077118U,
  0x3b2cb82438aa83a8U, 0xbb17dc5038e03d77U, 0x393df9d139daf1ddU, 0xba401a44bb394e97U,
  0x39033d75ba6ad548U, 0xbb2fedfd37815c17U, 0xba93f1ceb9242f16U, 0xba91c96fba6c9488U,
  0x3aceadbf3b09e972U, 0x3a336ed93c1e6206U, 0xbb36df2239e6b56eU, 0x3a8975e6baa6be9bU,
  0x3a49a7b03ac6b6f2U, 0xbb8aaaafbb3fbf54U, 0x38c734d3b825f620U, 0xbb31b864b8840c20U,
  0xbb39e1163a03353cU, 0xb9bec8edb90f37caU, 0xbb55abf8bb2a9a7fU, 0xb99516753b9e9243U,
  0x3b0a5f45ba0f7444U, 0x3c21b1483aea95c9U, 0x39af282139cde03cU, 0x3a2ee2323b2e7585U,
  0x3989d4e5baec9e9eU, 0xbb319c6039070bf6U, 0x3a88a7ccb9a5a726U, 0x39326d5439a81a94U,
  0x3a030124bb2e54c0U, 0xb9c9675cbaa4f7a7U, 0x3b2e7020ba1374daU, 0x3b426592ba32345dU,
  0x38f6c7d6393901ccU, 0xba5704443b2b7e3bU, 0x3a5e4b6cbb2a1bf3U, 0xbb354f6539b68590U,
  0x3a16bd2fba885a06U, 0xb7ad286039016223U, 0xbac737cdbb26f8a8U, 0x39b906d73ba124ccU,
  0xbb313264397ad55bU, 0x3a41ba9639ea869aU, 0xba55ac61bac8d0adU, 0x3b87040e3ae49092U,
  0xbc6c482dbc263178U, 0x3a7d3961bc53c52aU, 0x3c5ea5973c682ecfU, 0x3b2977b63a518f29U,
  0x3d27469c3b85dfdbU, 0x39935ea03aed93faU, 0x3b281a15399586b8U, 0xbb15974bba924b37U,
  0x392f27b439b86785U, 0xb9868d36bb322f46U, 0x39bceedcba9af3c5U, 0x3b332ded39c4352eU,
  0x3b00f27f3ae8a10bU, 0x3d268403bdbd4f3eU, 0x3e02ae993bb19857U, 0x39a88f123bf3bfa2U,
  0xbb2e8439396eefefU, 0xbaf0510e390fe458U, 0xb9343134b8f650f7U, 0xbb41cbddbb2a327fU,
  0xba9a9d0b3b8d1fa5U, 0x3b056bc3bab3b30fU, 0x3c1fe0a4ba2f5ca6U, 0x3ba2ba4abc362ecbU,
  0x3dd6c6c43bc3f64aU, 0xba01e1123abccdd1U, 0x3b184783ba0c507aU, 0x3c04094838626a0aU,
  0xb98501dab9afd88dU, 0x387c21763b1f65deU, 0xb9f3e353bbaa197aU, 0x3b223a05b9c4cbb1U,
  0xbbb193903b1c2fb4U, 0x39b804a339e29b33U, 0xba76b6b33b2b1699U, 0xb881394dbb1f7665U,
  0x3b20deeab8bcea8fU, 0xbb9d70ae390d4959U, 0x39430bd039eefad0U, 0xba71a575bb3731caU,
  0x3b2844a33a51ac2cU, 0xbb1f30943a997836U, 0xbad2588d3c144a5dU, 0xbafc6912bba815ffU,
  0xbbd8f0edba19e520U, 0xbbe3406d3c570911U, 0x3a16b623babc1dfbU, 0x3c6218723c55f4d7U,
  0xb9de0fa4bd4dc903U, 0x3d9643163ba41368U, 0xbbca976a3c160a22U, 0x3a67a6e0bb89c9e2U,
  0x3c621af63c4722d9U, 0xbd4fb11a3e35a653U, 0x3e0a7cbe3bc50b5dU, 0xbadd69903b9e7a81U,
  0xb9161f7fbb8314e4U, 0x3c56ac373bb2c66dU, 0xb8abe63237df3a1fU, 0x3a98bccb3b33fbf1U,
  0xbea117603acfc6aeU, 0xbb8c936abe038277U, 0xb8ad12cbbd67934aU, 0x395e12b93997e40cU,
  0x3933f43c3b30cc00U, 0x3de2e8e2bace65f9U, 0x3ba5dc213c6fb884U, 0x3bb13c303e083018U,
  0xba0530f7ba09483aU, 0x3af5eab93b28ec82U, 0x3c5e1c7fbb7ff36eU, 0xbb5183323b8f5d0dU,
  0xba463364bc6d8d96U, 0x3906aa50393c773dU, 0xb8f6f5a1bb2d5565U, 0x3c5c1ad33adc0ea3U,
  0xbb5fb6173ba5d2dcU, 0xb99e20b8bc880e34U, 0x398633ff39c96704U, 0x3959757a3b2d03e1U,
  0xbc8df71abb207cd9U, 0x3aeb0a21bca09497U, 0x3c6cd1183d1e4c13U, 0xbb3a7c25bbad266aU,
  0xbbc332afba26ec89U, 0x38c58fa63c52b14dU, 0xbb35689bb891761fU, 0x3b90046bbbc708eaU,
  0x38fbc16c39b640e4U, 0xb9155163bb313050U, 0xb82391a8ba9c4033U, 0x3b31845eb82cd95cU,
  0x3b42326cb6f02c2eU, 0xb8e4eb2039e9129aU, 0x3aac1db7bb2f371eU, 0xba8b9765ba83d691U,
  0x3b019b73baa0788aU, 0x3c0b18cebbcdf059U, 0x39d721eb3a09cc7cU, 0x398be2553b31329dU,
  0xb95a833a3ac14c01U, 0xbb29ade8b91a30b0U, 0x3b8a38c5bb08410fU, 0xbbe74529bc5951d9U,
  0x3d2423313b5ab0f6U, 0x3ac01012bc05b2c2U, 0x3b2d0f0d39d74954U, 0x394b3116ba1490bcU,
  0x3918bb0b399955ffU, 0xb9a9be29bb307599U, 0x39bc4d4e3a830016U, 0x3b2bfea73929ebebU,
  0xbb2ec1e43a3a7ff4U, 0x38e1dcdc399864f6U, 0xb983f7b8bb2ec9baU, 0x3a0fbfe2bb14b652U,
  0xbb0281d23941bf2eU, 0x3c0d1864ba99446eU, 0xba693b38ba7cfb1cU, 0xb9a86c5c3acd2443U,
  0xbb62efd9bc2466d6U, 0x3a4f2ca7bb88dfe1U, 0x3c61e1243c540908U, 0x3a3ce5a4ba36b048U,
  0xbb90acc3bb3d43ebU, 0x39c6dc6bba72a059U, 0xbb37bbdeb8ee1ee2U, 0x3b63f6dcbbb313d1U,
  0x39b9f3c13a30cec0U, 0xb9e0b5053b2ab1f9U, 0x38aae5ddbaaca09cU, 0x3b30f2d238f8039bU,
  0x3b75583ab917b6afU, 0xbb3c4c36bbfaa489U, 0x3b35d82eb7ab8d37U, 0xbf438e9c3c56f1e8U,
  0xbb3549f03f8f772aU, 0x3ad2c2f43a0a5ff6U, 0xb9dce86db9bddb87U, 0x3a0639573b0f5883U,
  0x3b8e6e74bbeb9059U, 0xbb8224f3bbc0f916U, 0x3a676a77bd00584fU, 0x3d946e733d23e130U,
  0x3e0903863bc416ecU, 0x3a577b843bc61561U, 0xbb33d8b5399d25caU, 0xba8b7dea39ac7b5bU,
  0x3a0074663af092d7U, 0xbae6050ebb3900ddU, 0x3a137423ba7a7d9aU, 0xbb3400913989c319U,
  0xba9fbb003a4213a7U, 0x3ac1bbbe3b4e5e0cU, 0xb9fa84e3bb333093U, 0x3766aa753992da27U,
  0xbb2d9df4b8a28729U, 0xbb3185fa39800de0U, 0x385f59723913e581U, 0x38fdc5303b2da62aU,
  0x3ab24f83bb095ea5U, 0xbb3bf34d3a905026U, 0x396113c7bb6385f8U, 0x3df41596be1a5444U,
  0x3e0460013ba539e9U, 0xbac628473bcf94b2U, 0x3afb9dfbbadaa0bdU, 0x3c297c2539bba4fbU,
  0x39704ef339f4233bU, 0xb996dc05bb3649c2U, 0x38fc365aba5f9a4eU, 0xbb0b7e53b82127b6U,
  0x3c08aba9bb805e57U, 0x3a947bb23ad14f4cU, 0xbadf5b8a3b11fbdfU, 0xba9717943c0a4402U,
  0x3a6d6d29b8877ef9U, 0xbc5310553c5c946cU, 0x38a4641d39d8c4e5U, 0x39c9ae6cbb35078aU,
  0x3928aafdbaa3180bU, 0x3b33a22339cfb154U, 0x3b2abc793a23e854U, 0x398953e03a2fcf98U,
  0xba8617acbb303bcbU, 0xb96bac7c3afa7c79U, 0x3b306515b95141ccU, 0x3b56e20e39ee2147U,
  0xb8e59885b888175eU, 0xb8ac34093b311466U, 0xb8cbe07c3b2d4ef1U, 0x3b30481eb921f74fU,
  0x3b1f38abb9dffaf7U, 0x38fb28cb392fe114U, 0xba1887fd3b2c2e82U, 0x3ad8ed743b66366eU,
  0xbb32503d39beb7afU, 0xb9627860ba921b32U, 0x37ce879239190f73U, 0x399ffc873b23e30aU,
  0x3df8956bbb996b6aU, 0xbbaf352ebc9f77dfU, 0xbaa5c480be077adcU, 0xbac1c093ba4a6e21U,
  0xba91249f3b2e6813U, 0xb91d744e3b4d90e5U, 0x3b236e91b8b52456U, 0xbb98ab943a36f5a4U,
  0x38db6e9039cc6c2bU, 0xb98e0d9fbb31661bU, 0xb9f71389b9b80ac2U, 0x3b322029ba5b0ee2U,
  0xbb2992863ba33bc8U, 0xbd6e22d2bd98767dU, 0x3d3d53363b16e127U, 0x3ab497723c641b7bU,
  0x3b3303643aba9fceU, 0x3b94f0283b3946e7U, 0xbc442b9e3db588c6U, 0xbded2648bbbfb072U,
  0xba1e24c6bb5e8e97U, 0x3b0ed29ab9c6c7f5U, 0xbbed566a39f3ae87U, 0xbb19a128bb31e8fcU,
  0xba757ee7b9ffd081U, 0xbb6279d33c55f08bU, 0xba2a3c29bb2a579bU, 0x3c549203bbbc0708U,
  0x3b14021f3bc39ffcU, 0xba8d49f8bb3624dcU, 0xbb02787f39a7c3baU, 0x3a1566d9bba51a6dU,
  0xbc537a9a3c5adf6bU, 0x3b15b24c3bd3b7c5U, 0xbcc026483ab9c16bU, 0xbc088137bbd79dd1U,
  0xba1eafe3baf3bfd4U, 0x3c508d5ebb8f0470U, 0xba3f3e92b9f24e87U, 0x39a12eed3b0fe3b5U,
  0x396485853c154fc1U, 0xbb36cdd3b8c5ddebU, 0x3b639a09bb63f6b5U, 0xb9683d39b94db2d1U,
  0xba365bed3b2e0af0U, 0x3889cb493b55eff0U, 0x3b2dbce8b602baffU, 0xbb0c3db7397782c5U,
  0xb98d4b19b9b02b53U, 0xba0bb8b53b2f188fU, 0x399b65193b4dd369U, 0xbb2d0d8238a44f86U,
  0xbb15a7b339c1690eU, 0x38ecabc738308e53U, 0xba62a32c3b1c6db5U, 0x38fafa47bba9e6afU,
  0xbb2c6a9ab907890aU, 0x3b634662bae6849cU, 0xb8a3ea4db94afe33U, 0x3a693cf03b25891cU,
  0xbb3ac280bba10fe5U, 0x3af91ceebb1fd787U, 0x3c2c43beba64ff7dU, 0x3959ae9939f6b7d1U,
  0xb915db65bb32b689U, 0xbadd9644bae85cbdU, 0x3b3a8bb3bad4ff0aU, 0x3a35921d3b82aca1U,
  0x37dd3fbe392af8aeU, 0xb83a684fbb319142U, 0x39186bd1bad944daU, 0x3b3308483929ada0U,
  0x3add3df53a2932ceU, 0x39f866453a09676cU, 0xba1edeb73b29a4fdU, 0x39a1355bbb10cf2fU,
  0xbb3250653857cbf1U, 0x3a737b45ba309b25U, 0xb96d0026b996d4f9U, 0x39f609343b233c26U,
  0xbbccff09bb939fa8U, 0x3a057e8fbb82a444U, 0x3c5f4f063bcb0d47U, 0xba7d499fbb15aeb3U,
  0x3b9a3d2a3b154826U, 0x39eff993bbfc866eU, 0x3b2c35c9ba6d82dbU, 0xbac39a44bb66cd66U,
  0xbb08b710ba87f156U, 0x3b178ed93b0c6194U, 0x39956bc03c2158a8U, 0xbb329d2a391e015bU,
  0x3ac777b8b9e6579cU, 0xba00e355ba17670fU, 0x3a8d319f3b0f95aaU, 0x3be918a3bbf1ccedU,
  0xbb41c0b13b08c43dU, 0xb807d50dbbdff7dcU, 0x38c177723994d2c6U, 0x388345cd3b2639e1U,
  0x398c909fbb6e68b0U, 0xbb35804338e87992U, 0xbad6c01538891a06U, 0xbbd9b02d3bb10fb2U,
  0xbd3df48fbb95bb9aU, 0xb9c1503136afb323U, 0x3b27afd7b9dea5c1U, 0x3b7eb968ba9dbfefU,
  0x397a11dc39279c6cU, 0xb9fdb4df3b2f4013U, 0xbe05c0103b8ba5edU, 0x3bbcf2b8bb879d5cU,
  0x3bf46eb53e02dac5U, 0xbaf584a9ba9b465fU, 0x3c7c70783a61e9cbU, 0xb98da9213c65c714U,
  0x3b2e818bb9ed042fU, 0xbae5eccdb9a1d024U, 0x3aa98c913b7cb030U, 0xbc4c244c3b0c9f81U,
  0x39efc48cbb1c8fddU, 0xbb305b1e394696a1U, 0xbaac3acb3a1a162fU, 0x3833ca22398250d2U,
  0x39e10f5bbb33d1f1U, 0xbbb12992ba9a6be1U, 0x39c0d5e1bc8d5a94U, 0xbc0aaae9bd3daabfU,
  0xba28a2fdb9c1d01cU, 0x3abc67893b0981e0U, 0xb88aa28b3c283543U, 0x3b25454636a93f96U,
  0xbb986d8d39ea4848U, 0xb65c5b1739316385U, 0x397f4243bb326ab6U, 0xb927b542bb199982U,
  0x3b19a66bb91a8f7fU, 0xbbc524e33a395df0U, 0x3aec94ec3b3608fdU, 0x3bec6ee23b43f216U,
  0x39d8c1273a60dfb8U, 0xbb31c449396b20e3U, 0xbace855db921b9d0U, 0x3997ba033a26cce9U,
  0xbb3957563b28d959U, 0xb944a60aba7af74aU, 0x3b31fa31b9710715U, 0x3b0527e53a372a60U,
  0x39a8acdf3a46cfe4U, 0xb90068cdbb36076cU, 0x3a1800f7ba304439U, 0x3b3263803a1bd695U,
  0xbab8aec73a446d66U, 0x3a2373883acc13caU, 0x3902c84f3b3385eaU, 0x3d4354bf39220225U,
  0x3afabe91bab783d5U, 0xbc2215f83d6e39a0U, 0xb9f35f11bac5f84eU, 0xbc7c1325bb4bedebU,
  0xba03ed8c3b5ab0b2U, 0x3b34bde8ba2ea1b4U, 0x3a2fbccf3a815a97U, 0x38a2f3c0390d8383U,
  0xb920cfb63b2aebbbU, 0xbf62ed7ebb1ea061U, 0xbaedb9383fc983afU, 0x396f7ddfbcecadd9U,
  0xb79c4dc1395368b3U, 0x39826fedbb331d55U, 0xb99cadfabb081896U, 0x3b28ecccb9a04a1fU,
  0xbb8402453a887255U, 0xb809929536c301bbU, 0x39bf7d993b2a328cU, 0x3b061083bb2b5d24U,
  0xbb3a351f3a6862d2U, 0xb9201085bb811115U, 0xb8cbe9adb8811a06U, 0xb94b95793b2e87baU,
  0x38897601badbc004U, 0xbb33b5ddb86adf71U, 0xbb1ef7b039687ec5U, 0xbba345f2bc2ab03dU,
  0x3d8557053b8a77cbU, 0x3950f44cbbbc4c34U, 0xbb309e12b8d4c2daU, 0x3b6963fabb08be15U,
  0x3d22ef4dbe05f5bcU, 0x3e07c2603bc27801U, 0x3bc1bb203bfbb8ffU, 0xbb3ccca53b1b1e76U,
  0xb99a1534bb896ebeU, 0xbb173a4dba6bfbc9U, 0x3ae67fe63b359a09U, 0x3aefafa539a80534U,
  0xbb4b6a0a3ab67967U, 0x3aa98bacbc260c60U, 0xbc3d53303d017514U, 0xbde3eababb41e311U,
  0x3940878a3acdfe26U, 0xbb2d8e3d38e96b7eU, 0x3a9b5b723919b9a3U, 0xb8facc6c39277fa3U,
  0x38d2a31d3b2fff97U, 0xb98a04063a0a5ac7U, 0x3b2831d5b9494da2U, 0xbb8690603b06a80aU,
  0x3880ec44392e50b2U, 0x389ace23bb33c7aaU, 0xb8c1ab86babc8a46U, 0x3b2458e3b914da4dU,
  0xbba828c33b0d380dU, 0x39d6a2833a21f97fU, 0x3a839285bb31ce89U, 0xb958f3823a8830e9U,
  0x3b326d30b9a2f7d9U, 0x3ae9421db9dbb3a0U, 0xbad98d99bb3a3eb6U, 0x3bdc105438cd6d12U,
  0x3ab0659d3c5d6ebcU, 0xbb3446373a16a2b5U, 0xba7bf0a33999d6d8U, 0xbb74a3b8bb6b8269U,
  0x39cf6492b9afa6fdU, 0x3ce589cf3c56f2cdU, 0xbb8e854dbab9e6b5U, 0x3a63225bbd3df7b2U,
  0x385e30f4391fda6bU, 0xbb0301abbb2c1cd6U, 0x39a601f73b834057U, 0xbb34d29038f09ce4U,
  0xba8a4914390e7035U, 0xb7d13f8238230e35U, 0x396cb448bb2e45abU, 0x38cafdf6bb250d6bU,
  0xbb29210bb88c6ba8U, 0x3b718e5eba7ee748U, 0x39ea80c93a542f8dU, 0xba5375a0bb370ed2U,
  0xbd6d715639f07e06U, 0x3bb614d9bbd570d0U, 0x3bfe01c23e07c1c9U, 0xbaf19cd3bb261b92U,
  0x3bc6c2003b2ae8d4U, 0xbaf31f95bbabb1deU, 0x3b11281fbba484f9U, 0x3b2abe0fbc456a07U,
  0x38c1f584398b2020U, 0xb901d7bbbb34b094U, 0x3b83e8a8bb0b3934U, 0xbb60d05b3776f8a5U,
  0x3b0cdf39bca811c5U, 0x39e484313ae58623U, 0x3adf4d1abb32c6acU, 0x391fe08fba28cd14U,
  0xbb301aec37cea274U, 0xba9f66f737ad8095U, 0x3983f96439b22bc1U, 0xba1231e83b252448U,
  0xbaa123e3bb321d62U, 0x3b221216bb287128U, 0x3a62822fbbcccf24U, 0x3938c95539b05ddbU,
  0xb9d70dd0bb321a7dU, 0xbb065de33a8f4f09U, 0x3b02320cbacfe3b7U, 0x3c36d20b3b54e59aU,
  0x3991b552398cd8c4U, 0xb74f7dfabb2b8076U, 0x399b05e83b0efbdcU, 0xbb328c37391a0f33U,
  0xbaaa3495b91de738U, 0x3bc4f7613c0af191U, 0xbc048a223b1a6b27U, 0xb9357427bb09dbd3U,
  0x3b199530b95c9a1bU, 0xbbbe249a39fa4af2U, 0x3db67b30bc01083dU, 0xbdf5eabdbb5e7f31U,
  0x39d79d7a3ae16bb8U, 0xbb2f9d83ba107b89U, 0x3b838830bb7541daU, 0xbf81083a3f737d61U,
  0xbc75b8cd3a1d7ff4U, 0xbdfebb693969c205U, 0x3bae2d263ba18adfU, 0x3c011c203e04a092U,
  0xbaceaee7ba985e16U, 0xba6698973aea48f9U, 0x3968c09c3c2df2c9U, 0xbb2ea3743900a693U,
  0x3a83bb6839642426U, 0x39939f5e3958f4ddU, 0xb98590153b300566U, 0x399ee90d3b616eb2U,
  0xbb355c4e391a5723U, 0x3a86b48bb99c8706U, 0x383df8be394085b1U, 0x398d77febb3461aaU,
  0x39738e66bae5d36cU, 0x3b29cb2a395a1573U, 0xbb52e9a13a736232U, 0xb945f43e375e13a3U,
  0xbb672b84bb341a06U, 0x393fa6e93b8d0038U, 0xbb2d6b79377a2689U, 0xbb4c7d583a621908U,
  0xb804334a39e60707U, 0x3a0656cbbb2eed2aU, 0xbc9af8dbbad5cc38U, 0xba768f8cbc0d0d97U,
  0x3c519a66bc0cada7U, 0xb8e7000439184b03U, 0xb9f847573b245361U, 0x3f66685b3bc8e218U,
  0x3abe3390bf6a8f33U, 0xb9d205663bcd44bbU, 0xb9292717b8cbe88aU, 0xb9adaba63b30db54U,
  0xb835d8193b130b2eU, 0x3b25f255b7061c89U, 0xbb97cc003b2dc91cU, 0xba5cd99eba837923U,
  0xbc1a2f54ba6a8babU, 0x3e6cbd613c53f1a9U, 0xbbb1224dbd96a06dU, 0xba3d2735be070903U,
  0x3901eb0139b636cdU, 0x399712d1bb2fcde3U, 0xbad4914bba62f655U, 0x3aea5403bb06e6e7U,
  0x3c3510f1ba71de11U, 0xbc37dd48bb838c24U, 0x3c8012333a5e0144U, 0xbc92e48b3c6167c1U,
  0x3b20a8b23c2e00d0U, 0x3c5fe5723d13d2f2U, 0x38698f413841619cU, 0xb9d74a77bb2e1c0aU,
  0x39b564aa3ad2beb5U, 0xbb31201f394f7de7U, 0xba89740839dbc949U, 0xb9170ddab88ced5cU,
  0x38b48dff3b236ca0U, 0x3b0c8d23bb8ca9d8U, 0xbb4e60f83af49ec6U, 0xba4ca2c8bc234efeU,
  0x399a1ac539d9e773U, 0xba96e6a73b278e01U, 0x396cac53bb18d08dU, 0xbb3410ce38e507e6U,
  0xba8860e1b9b42ceaU, 0x3a59efbf3b0d9157U, 0x3a5b9482bb2e8a30U, 0xb83e7b7eb8daf5c9U,
  0x3b1e09e9ba0e48ffU, 0x3be7bf6db9eba378U, 0xba88f232bb269fb9U, 0x3c4e5f4e3b09c1eaU,
  0x3a7594853c4577cfU, 0x3b30ac64392d302fU, 0x3a35bf45b9bf5d0eU, 0xba377c92ba20bdd6U,
  0xba1a164f3b2d18d9U, 0xba1ba80c3b5b14a5U, 0x3b019a46ba3c6fadU, 0x3c2975c63a9e3122U,
  0x396d2bcb39b0de2dU, 0xbb6b09ecbb07bcbcU, 0xbc14f91c3c08d407U, 0x3b290815bbafa642U,
  0xbc107f103ca74053U, 0xbbc522eabbc18cdfU, 0x3c9808ad3b5819acU, 0x39d01a7cba164369U,
  0xbb338f37394c44c5U, 0xba9d35353908000bU, 0x39451bc9398e7f24U, 0x38ffc1c0bb35fa0bU,
  0x39f9133cba8c329fU, 0xbb31b31539417791U, 0xba84a8fab9a60d02U, 0x3d1d08703da18605U,
  0xbe08bbacbbc142eaU, 0x3f770e2dbb0b23aeU, 0x3b08aa65bf809035U, 0xba49a9563b759086U,
  0xba3deb00bac1181bU, 0x3bf3ce283b02d749U, 0x399025bf3c3c3ba7U, 0x3b268e5639331f2bU,
  0xbb63d9fcba423c54U, 0x38c6f5183a868e27U, 0xb9224c14baf70dd8U, 0xbb49f0163c136ee2U,
  0x3af2f8cebb1fb1bdU, 0x3c3ccbfa3b28664aU, 0x39e9234a3a747e38U, 0x39f25539bb359c44U,
  0x3a177beaba627e81U, 0x3b2e3c0a39e3c012U, 0xbae9a62a3a275067U, 0xba47bd0dbaaeda4cU,
  0x3b3adc783b17d3b3U, 0xb950d5fcbbed8f42U, 0x3b24e8edb7e0523aU, 0xbb9488c33ad3b90bU,
  0x3a6049e53aa7f906U, 0xbadae3ed3b27b26cU, 0x3d47597ebb347bafU, 0xbab2c7d73a3a3911U,
  0xbc59870dbd1c4563U, 0xba84d77438803e70U, 0xbb3be1753af8f35aU, 0x3b0732b13c23177fU,
  0xbb3f86d73a9e40a1U, 0xb9a93a0ebb8576e8U, 0x38cd1c4e391ab169U, 0x383c83c7bb305e57U,
  0xba79f74a3acea209U, 0x3b075712ba3fe59cU, 0x3c27f15139ccd4c0U, 0x39ba831e39a2a5cbU,
  0xba62a0443b287001U, 0xb987e142bb2e818bU, 0x3b2efc1cb9aa46b1U, 0x3b1cc1a537182013U,
  0xb8358da4b8d6781eU, 0x3ab48e313b2a8b44U, 0x3bf9f55cbb3b0c6fU, 0xba477cfd3ad6ef1fU,
  0xbc2fc8013cac82dcU, 0x3a8b9bfd3a666f3fU, 0x3a09d85cbaf70bc9U, 0x385759933c0d5c60U,
  0x3b21e30f3826ba37U, 0xbba0b52b3a448885U, 0xbc3ae764bc7a2d20U, 0x3cb523023b4adeb8U,
  0x3c471966bba0bf92U, 0x39f80d7d3beea5d7U, 0xbc3c393e3d1478bcU, 0x398a611039a88b65U,
  0x3976b61a3b2e8bf5U, 0x394eed703ace1fb5U, 0x3b2a3d1538949dcdU, 0xbb3064bfb9e62a4fU,
  0x38d1b4c539659b95U, 0xb8684f73bb33724fU, 0x3942e4ac3a8434f4U, 0xbb31c036b895ff11U,
  0xbb40af9939aaa405U, 0xbcdef4a83b86c36cU, 0xbd08e802bb852dd9U, 0x3971decb3a04820cU,
  0xbb32a8e638e6f954U, 0x3a8c96d2ba40d6c2U, 0xba753431baa14d6cU, 0xbc0eacaebb1d137cU,
  0xba0031423bf6acb1U, 0x3b11ca22b9c5a82bU, 0xbbe742e63a96f4d1U, 0x3956edc539fa5494U,
  0xb7c87104bb3169d9U, 0xbecd7b1b3a11d073U, 0xbb5a3e583d2b9b58U, 0xba2e7163bca6a551U,
  0x3b25b6bb3bca7a9dU, 0x3c602da4bb11b822U, 0x3999a11bba4b9685U, 0xbb30c11e38d31cabU,
  0xba940c2c397a6e0aU, 0x3920947c397d14dbU, 0xba66a78ebb3469cfU, 0xbbddc6dc3ac2645eU,
  0xb9d0f5dfbb12cc10U, 0x3c59eaf3bb0267baU, 0xb90fb606b7939100U, 0xbaeb5dbdbb2c8406U,
  0x399dc2703b870600U, 0xbb91d0083bedaf0bU, 0xbac95d58bd4c281cU, 0x38e25ff239974014U,
  0x380d2a4dbb325b42U, 0x37c53039bae31e5dU, 0x3b1fe9f6b94216a3U, 0x3bdd4276b9d9d124U,
  0x34847d053972d23fU, 0xb99c31de3b2aba7dU, 0x3f754b173bbf0f87U, 0x3acc0ceabf7de45dU,
  0xba4de62f3ab2edaaU, 0xb99a0ecfba8e1068U, 0x3bd541793b084af2U, 0xbd57cf3d3c355338U,
  0x3ba240713c5e450dU, 0x3c21bd293d9e9ed4U, 0xb99de0a4b9020efbU, 0xbb04c4c23b2de1c6U,
  0xba09c7073b37b4d9U, 0x3add654cba43b2ccU, 0x3c2d1ad3bb2c0887U, 0xbcc3bc20bc6a9bd4U,
  0xbd6d0c3db909913dU, 0x3a44658e3bb60e5bU, 0xbb4cf8d5ba968376U, 0x3b5f24d2bc4ae9e2U,
  0x3708ab4c38f7ae62U, 0xb987a36c3b28f5cbU, 0xbd47422f3b951c14U, 0x3bb7a1a83c403962U,
  0x3c0492083e06cef5U, 0x3964897c3a09c841U, 0x3a416645bb2e1ce9U, 0xbe1052e7ba66bfbaU,
  0x3bb178ddbaf62c17U, 0x3c02b2cd3e053b89U, 0x3a945c523b0c58caU, 0xbb0275e1bb36d6c7U,
  0x3b88aed8b898c09eU, 0xbb320a743aefa9a3U, 0x3950afcb3a4815aaU, 0x3890ac6638b52578U,
  0xbb44e6f7bb298833U, 0x3a94092b3ba2b406U, 0xbb31ba933a2b86c3U, 0x39c13cee3ae43dfeU,
  0xbb59cef1bb66b251U, 0x3b8a45123720737cU, 0x39e24b643c5ced14U, 0xbb3387eb3951f71bU,
  0xba70ed9cb923da84U, 0xb772c012b79607b1U, 0xb9ee62c53b2f4bccU, 0x3971095a3af6b28eU,
  0xbb34715438d6ac62U, 0x3aafcd6dba4b18f9U, 0x37a7336538e61135U, 0xb95b4180bb2c842bU,
  0x3cdac91c3abee036U, 0x3b344b3c3c6015e4U, 0xbbfced993dacdec1U, 0x394975cb3a161f28U,
  0xba5091b4bb3970d7U, 0xb9a27b01bab6188cU, 0x3b26576eb980f4c6U, 0xbb8e3dfd3a43de17U,
  0x3d99be5abc33bc35U, 0x3e079b033ba81ab2U, 0xbc3498063bd0ba4aU, 0x3b9d30843bb806cfU,
  0x3c1839393d9d999eU, 0x3740a34039354b3dU, 0x389323b6bb2ff370U, 0x37b812d5baa18c54U,
  0x3b24ee3fb889ce6eU, 0xbba371813b14873eU, 0xb9dd92eabaaba1e8U, 0x3b1f06203ad0dc22U,
  0x3ad3feb3bc2d3910U, 0x3b1707493883ddf7U, 0xbaeff9b5bc0b7a59U, 0xb98dc38ab962b32aU,
  0xba0c159a3b2e94ffU, 0x3d8f24773b2dd961U, 0x3bbf13c13da4e778U, 0x3b2013e83e0d4f85U,
  0x39d1a4713b89e114U, 0xbd3c2dd6bb91efa9U, 0xba16923bb983960cU, 0x3b2428eeba59567bU,
  0xbbb540083ba2a138U, 0xb9d10510ba3f3b2eU, 0x3b5ac3063afa340aU, 0x3967e026bc1cee16U,
  0xbb352d0838b0f79fU, 0xbafb876338cbbdc1U, 0x39926626398af8d4U, 0x3a995d083b2aa549U,
  0x39569268bb81da9eU, 0x3b2d090b39262343U, 0x3b69991db9a730e3U, 0xb9023c6bb8886b2bU,
  0x39b3b40d3b302f2eU, 0xba3f2c76baf1c538U, 0x3af56213ba462783U, 0x3c294d3dbafe2b2eU,
  0xbb5694ceba82d0feU, 0x3b42e26eb8e8c0f6U, 0x3cda7dca3c590987U, 0x3b93baab3d02fce8U,
  0xbb42978a3df2842aU, 0xb9a3bc53b9b09791U, 0x3b0929943b213981U, 0xba5279a5bbbb764aU,
  0x3b35c822ba1b5811U, 0x3b1ae2813a82a822U, 0xba005548b9ce75b3U, 0xba6e3b2a3b2f8cc3U,
  0x39bb07a53b5a49eeU, 0xbb37b3c238d1557dU, 0xba5b79d8b8aba28cU, 0x39511982399799f4U,
  0xb8a36f6dbb34027eU, 0x39f73abc3a76f4dcU, 0x3b30e1363a125d73U, 0xbae33c793a8979efU,
  0xb92a2e39b89df5ffU, 0xb984c1723b324e92U, 0xbea67c983b35bcdcU, 0xbb84b44fbde2956dU,
  0xb92b6736bd551401U, 0x3987978839896360U, 0xb9e553433b2b4e4aU, 0x39c5893cbb3c4d45U,
  0xbb207d53b890037dU, 0xbb925b933b6eda4fU, 0x3925d40639820dabU, 0xb925dc52bb3226f3U,
  0xba553cddba973214U, 0x3b023de8ba2b3657U, 0x3c27a00fb7a7b4c1U, 0x38f363dc3802c94dU,
  0x3ad3c3993b2e729cU, 0xb9c99b35bb411e3aU, 0x3b252779b9b5bca0U, 0xbb8dbb553b18106aU,
  0xbaa7c5a639d00bc0U, 0xbc63dd6cbb559785U, 0x392cc3793b1a40b6U, 0xbb2cccffb90156d4U,
  0x3b8c954abb264ccfU, 0xb99a6549b959746aU, 0xba8eb0e43b2ac8a6U, 0xbaac070d3b481e0cU,
  0x3b038633ba9744dbU, 0x3c2df0803b64de23U, 0xb92b988338987dccU, 0x3ad2dfe2bb2cd591U,
  0x3c6cd201bb07cb50U, 0xbb98a036bb8e5a3eU, 0x3930b117bd630e72U, 0xb982c6d3b854dfd4U,
  0xba832a72bb289537U, 0x39f8534f3b916522U, 0xbb306585b76fe5caU, 0xbae65ec93a76a104U,
  0xbb8a4c11bbc2a9a8U, 0xb973c68ab9c97f2aU, 0xb5b5c7a33c57491aU, 0xbb230e3bb91b6a50U,
  0x3ba8d311bace2f6fU, 0x37d3a90f386de27fU, 0xb99c38d9bb2ae1d6U, 0x37c88b0e3af0eb24U,
  0x3b2c6f2eb7fda9d3U, 0xbb15e49539631533U, 0x3e2bb9d3bf101d43U, 0x3c98122439e37bf4U,
  0x3992ace6bc32becfU, 0x3b31e8c7b90804a3U, 0x3a0e98b3ba5c1d5aU, 0x38d780d63a196fd7U,
  0xbafa848abb306055U, 0xbd5bc01c3aa0fba1U, 0x3a95e3f2bba6db2aU, 0x3c5fbb753ce4990dU,
  0xbb9403dbbc868268U, 0xbbef7728ba3c49edU, 0xbaa4f5b23c51e4a4U, 0x3b25e140bb0897a5U,
  0x3b41dee7bb9616b3U, 0xbab1bc7bbb827250U, 0x3c5c124c3a52126dU, 0x38a886cd3c61ccd9U,
  0x3b2b44f136f7bfbcU, 0x3ba84e42379244dbU, 0xb8edf52a37d9d832U, 0xbb2122a8bb2da3aeU,
  0xb8baec503b8f37b7U, 0x3b32b400b8f674f4U, 0xbab85cfa39f8dab6U, 0x3a5a832bb916c988U,
  0xbb854d36bb1598b7U, 0x39ca63883bf2898eU, 0xbb2e9eb639333eafU, 0x3a2a9e16b92cfa29U,
  0xbbcd92e9bbd864e8U, 0xbc8768663ad9b9b6U, 0x3bc538b73bf2afa7U, 0xbb4714c43b2a325aU,
  0x3a7415febbe1ae90U, 0x388dc21b3a3d8329U, 0xbbb8f2cbbb3f9134U, 0x39fc38c33b38b9a3U,
  0xbb3055513921a7d1U, 0xbab533b53ab84f8dU, 0x3cd0c037bda7a5daU, 0x3e0a06c83bc0f3e0U,
  0x3afcb6873bfc7a16U, 0xbb7ec279bb981cfbU, 0x3a644ab8bd02ed17U, 0x3c1c85e23d4494b6U,
  0x3e0718393bc1a3f1U, 0xbbb27e7d3bcd93eaU, 0xba6da570ba0bcb2cU, 0x3c51b3cfbc239f42U,
  0x38ace0213928cbb6U, 0xb8bd7be0bb35128eU, 0xbb4f71d23a9c7a11U, 0x3b40b561bae444d2U,
  0x3a844b4a3bc87b12U, 0xbb99a968bb4a7cb3U, 0x3c26636638b08a79U, 0xbba85eb03c5bef34U,
  0x3b00e985bba3b349U, 0x3c4304b93c0971a1U, 0xb95807ecb987375cU, 0x3a3188ea3b2557f4U,
  0xbb0ee9dabb83f8d4U, 0xba36efc5ba158e91U, 0x3c546d25bbe855ecU, 0x38912b9d393d4297U,
  0x38c94c5ebb324a4bU, 0x3b151394bacc16cbU, 0xbb33c2883a7a2127U, 0xba218e8cb974735cU,
  0x38a638b43913bc20U, 0xb9474d3ebb2e3df0U, 0xb85693ebbb261ea0U, 0x3b29e46db57dedd4U,
  0x3b910722b9a0ce9aU, 0xbc129c75bcf9cd22U, 0xbdf982f4bb71d5d8U, 0xb963af323af78757U,
  0x3b23c612b91e1ba7U, 0xbb8a15ea38771a83U, 0x38d6ebed3958cf70U, 0xb942edbbbb2da112U,
  0x3bcfd8cf3aee9f90U, 0x3b483faa3bf5c55eU, 0x3acdc0e83c423f2aU, 0xb9699351b9393c53U,
  0xba37885f3b2f0bd8U, 0xba0cb82c3b00e06cU, 0x3a56382eba3238c5U, 0xbc51af8c3ad14633U,
  0x4084b2174086d9d2U, 0xc07c1442c0968486U, 0x3da1df47c0698afcU, 0x407696a6becb87a0U,
  0xc05db7a03eaa7513U, 0x3f975b0e408c0cd7U, 0x4068b875bf419491U, 0xc0799e46c029fc83U,
  0xbfe126bcbf54ac41U, 0xbfdc389b405b31dfU, 0xc093929ebf4cccf7U, 0x3fd1117b40624919U,
  0xbf5d41884086b0acU, 0xc0748cad3fbd6248U, 0x406fc7934085cccaU, 0x3f97c3a740859241U,
  0xbf9c5a67c07c2912U, 0x406ff9bdc230a072U, 0xc0968ab5c07d6b39U, 0x3f0c8bb9c06d6c79U,
  0x3faeda9d4133246eU, 0x407016f43fae4eb6U, 0x40841cf7418692a1U, 0xc06617ccc053f065U,
  0x408853c740849f12U, 0x40891a0fc08416aeU, 0x407c03fd40f9079aU, 0xbfa1e079bebf8caeU,
  0xc20c871a40816b66U, 0xbe6d4abac01e7272U, 0xc093f5d3c086c107U, 0x40487b1240841da6U,
  0xc043f1503fa49825U, 0xc08c7bdac01314c9U, 0x40821f29bd908a5fU, 0x407d1b7ec18e6b45U,
  0xc0b9e329c0843effU, 0xc01c0f2b4089a610U, 0x4074b9d6c0aac114U, 0x4072fccc403a0117U,
  0x40752b1441e9dbc1U, 0xc21b15e2bfdcb66aU, 0x4083205ac0513066U, 0xc0820290c041da94U,
  0x3ffc42e3bf3a3eefU, 0xc1c67d06c0856151U, 0x400bff44befca8d1U, 0x4083379f40869b3eU,
  0xc1f2a1cc402a4cccU, 0x408906b1c035f1edU, 0x407f710cc08b5e20U, 0x4077390ac0b8ce3fU,
  0xc0bfb72bc09558e8U, 0xc05df3c640838a53U, 0x40c73e2f40724aa9U, 0x406b1552c0b0bf3dU,
  0x3da6c329c109e8b6U, 0xc06e4dde417656c3U, 0x4085436340863c5fU, 0x406f6c0dc0837903U,
  0x408d9bd44078ac82U, 0xc091323e4063201bU, 0x407327a1c0810120U, 0xc086f1da407f78b8U,
  0x407302f2c0672fecU, 0x4070a621404db3d2U, 0x4081f925bf4af684U, 0xc06de151c1195db6U,
  0xc09b2abe408284baU, 0x40826d02be3d4d81U, 0xc07271f64064537dU, 0xc08cd723c1483483U,
  0xc03c19f4c03851dcU, 0xc046d6fcc072757bU, 0x4013686c40786b9eU, 0xbf90a4843f9d39eaU,
  0xbf66438c403e24a5U, 0xbed9288dc257b892U, 0x430fb31ec08fbddcU, 0xc25293ebc081b9f7U,
  0x3e3c24f1c051e942U, 0x3eb153e940673292U, 0x4092de25c07462b0U, 0x40765b423fd10fa6U,
  0xc09136934082802bU, 0xc0542cd6407dbf70U, 0x4063e09dc0974a1dU, 0xc0946ed03e98d1a7U,
  0xc07831274070f725U, 0x3fbdd35f4087930cU, 0xbfd98552befa3c90U, 0x407e6f5d40963531U,
  0xc09710bcc0836e2aU, 0xc2e4406e3f7cd6e9U, 0x40fba0ecc0075732U, 0x4078ae59c24b468eU,
  0x40800e77406d8506U, 0x408b51c0402baeeaU, 0x406d450bc0728f3cU, 0xc0619f51c0c5ee38U,
  0x400226844082c2f7U, 0x3e8978a2c0ac3295U, 0xc0987eb64083ea9aU, 0xc09142ef406475e2U,
  0xc08cf654c0907566U, 0x4064bbf4c0926e10U, 0xc1813aa0c04d138cU, 0xc0471be4c073e1e5U,
  0xc06e629f407ecd58U, 0xc0b9ee4b42026c59U, 0xc0010c04c104029eU, 0x3f81d2623e65fb4fU,
  0x4022edfd3fd62cceU, 0x400b1ca4c02b4899U, 0x407a0109c08aa353U, 0xc070c366c08ce19eU,
  0x4085c12dc08a75aaU, 0x40687f0ac03d1fddU, 0xc0378fe9c04dfdd0U, 0xc07078254084e7dfU,
  0xc090e14740873d3cU, 0x4076f878c07717adU, 0xbcaf124ac0469114U, 0xc05b3aaabfccd2f7U,
  0x406fcca7c07644b7U, 0x3fff6ec0c002fd1bU, 0x40897d87c0615bb1U, 0xc0877b5641178146U,
  0x41c70925c0987415U, 0xc063f311c05531bbU, 0x407fa549c07aeb38U, 0x4121461640849106U,
  0xc04f0f80c09091d3U, 0xc0305f76408a542eU, 0x4084ee18c0ceb46dU, 0xc08bde13c07e42f5U,
  0xc08a7217407abf04U, 0xc191af8cc09ce942U, 0xc081e91540b18468U, 0xc359b447c069c3eeU,
  0xc055d70440892ecbU, 0x40694359c064e3f8U, 0x408d13eec06e0c18U, 0x406ceccac07f4ad2U,
  0x4006ec19412a921dU, 0x407e6d94c056e07dU, 0x406b12a3405bf370U, 0xc0561a69c0881cbcU,
  0xc0508910408728a4U, 0xc088b6144063d03dU, 0x406a88a5bfa3b1a0U, 0x3f20d7e63f28cf11U,
  0x408400d8405e0ec7U, 0x405df33e408a24a0U, 0x406cc18740715156U, 0xbf8c34c9c00de5b0U,
  0x40956d98408b1667U, 0x4083d1734059612fU, 0xc01e382dc0666384U, 0xc0722a73407230aeU,
  0x4083be3540606cd0U, 0xc02eb67ec0ea4e20U, 0x40700225c16c88d9U, 0x41a48d0b41d1cc7bU,
  0x406f2b31c05a5e93U, 0x40776e10c096dba4U, 0xc06d9d0540893caeU, 0x408a0ffe4073118dU,
  0x410382bc4082621fU, 0x41264263c0979314U, 0xc059c48ac08bf379U, 0xc2013d8a3e9e387eU,
  0xc04f7801407df95eU, 0xc0ad85c63eecc423U, 0x4080bd81406e9706U, 0x4083c06cc04da6b1U,
  0x4085c29dc06c0fc6U, 0xc090bebf4043daccU, 0xc092a60ec08e8b19U, 0xc0880943c083d55cU,
  0x3f2e6b2f3fe4221aU, 0x4082e16dc00fb25eU, 0x4080f1a34085b882U, 0x418eb15bc1a18d66U,
  0xc0593abbc08f34b4U, 0xc040ee5c3f8a21e4U, 0xc083a1f640758070U, 0xc0506f54c000fe97U,
  0xc112f437c081091dU, 0x406843b7c079552cU, 0xc0859f48406f069fU, 0xc08983ebc06ca297U,
  0xbf931f3dc06e65b4U, 0xc04b720b3f643e15U, 0xc0d61d94403de444U, 0xc066f839c0908ce4U,
  0x408db1724076235cU, 0x4076eb93416dea3eU, 0xc00bf5d8405f02e2U, 0x42e3e736406ee850U,
  0x40813a4c3e089895U, 0x3fa4f1c94077f986U, 0x40de7ff64062f56aU, 0xc094d72940871918U,
  0x4184abe7c09c74c4U, 0xbf7d6bd0c0967fdfU, 0xc06bd7bbc0871f86U, 0x409f5c0e415deb5cU,
  0xc09e3144c0959fb0U, 0x41dce6724072eb01U, 0x400a45d04052717bU, 0x4055ec53405251c4U,
  0x4080b1a4be95feaaU, 0x407bb729c08dbcb8U, 0xc19a6816407056c6U, 0xc0501be940881479U,
  0xc12c1de8c20c0715U, 0xc04e6bc140847adbU, 0xc05af95ebf1260e4U, 0xc276e104c0889f53U,
  0xc03cde8740ef8ef9U, 0x408a2d73bfafd14dU, 0xc094859bc06d7c66U, 0xc076948fc07533a5U,
  0xc1eeedafbf2f80edU, 0xc08630c1c0371d3aU, 0x40848571c089f130U, 0xc086e5a44073dd76U,
  0x430cd15ac090eb52U, 0x4080fde0c06aa45bU, 0xc082c97b408480d2U, 0xc0504c92c076448dU,
  0x40618c4b40b1f0e3U, 0xc0820d2dc08817d9U, 0x40d2b6724085b572U, 0x4082ed24405be2b8U,
  0x40489b513fd029abU, 0xc06d24fa406b887eU, 0xc08892ee42ea170bU, 0x4148f3094071259aU,
  0xc04712d540b97bcbU, 0xc098abd2c01ba570U, 0xc07c39d740646a78U, 0x406f7a4c40117aceU,
  0x4005e6b23f88ca38U, 0x407ea6cc40837296U, 0x4101c28f3ebcec8bU, 0x3fcc68a2c205772dU,
  0xc060d7ee407b0550U, 0xc0092cc0bec18c5dU, 0x3e137432c0514bd8U, 0x404d83da40869487U,
  0xc093a1bc4089d28dU, 0xc0491cec41b62a23U, 0xc11e03ef406ba14dU, 0x3f5ac6c4c0877dbbU,
  0x3c5f63133a45ba59U, 0xbcc6643fba6939e7U, 0xbcd7798abc9e5772U, 0x3c334acd3c8fa7ceU,
  0xbc2631acbcecf108U, 0xbc013537bc93ed07U, 0x3c3b91543d485d2aU, 0x3c4a70583d04814dU,
  0xbc0fdd8fbc352176U, 0x3d8ff781bc422e65U, 0x3d61c9a73b8885f4U, 0xbd0b5316bcbeedccU,
  0xbbf7d7ab3cee117fU, 0xbcb450d63daa8f0cU, 0xbc6c92a3bca19149U, 0x3c12c8d6bca8be2bU,
  0xbcc36e61bcc7484bU, 0xbc009d46bbcbfc5bU, 0x3c359ec93c2a79efU, 0xbcfc1a18bd475331U,
  0xbcdf67763d93197aU, 0xbce22c3f3cb8423cU, 0x3af560673cab6884U, 0xbd31e0bd3c95e1cbU,
  0x3d84a9e03c07cfefU, 0xbb9253e1bcfa0106U, 0xbc96967bba590b83U, 0xbcf05b683b312e00U,
  0xbcbc4a2fbce96336U, 0x3d5861febce4e941U, 0x3d71399bbd3f00a2U, 0xbcf189ee3c478996U,
  0xbcfdf857bc7a0518U, 0x3d1f8476bb143fb2U, 0xbc86b5eebc22ec14U, 0x3a0a520b3d68bd60U,
  0x3d4b164b3d82f827U, 0xbc7525813c50f44dU, 0xbcd75fa2bc8a38e1U, 0xbceac9f4bc8d33f5U,
  0x3d316ba73cebefc8U, 0x3d43b15dbba77719U, 0xbc9ce937bbb0ffc4U, 0xbba808cd3d0c9e18U,
  0x3cb1707ebc623a7aU, 0xbba6c4a23b4e58e6U, 0x3c2791da3c5a9daaU, 0x3cad943dbc811a97U,
  0x3d28b944bc4c7644U, 0x3cb283973c1575e9U, 0xbcceb49abd0d4739U, 0xbc8f0a8f3d9bf0a0U,
  0xbd41c263bd2cf615U, 0x3cef562b3ce6b046U, 0xbc8419e8bcd82006U, 0xbc51d5c8bd35262cU,
  0x3d156901bca798ebU, 0xba7a9fce3aa5370bU, 0x3c449155bd04b10eU, 0x3bff4e053d444d2cU,
  0x3ca728363bfcd269U, 0x3ca7900ebc800e2aU, 0xbd027a40bd063499U, 0x3caa042b3b1c29a9U,
  0xbc542c53bcdfb82aU, 0x3c3dba73bbb7b624U, 0xbb24c06e3b74fb35U, 0xbd58b6063d193bfcU,
  0xbca167b63c9d4597U, 0xbca94fffbc41e0e2U, 0x3d269c79bbb3e6dbU, 0xbd2d64073da0df8dU,
  0x3ceae61c3c31b70bU, 0xbce5c1573d6ada3fU, 0x3d258c8abd01be57U, 0xbcc7352bbcf54c7aU,
  0xbc1ffa8d3d64e6ddU, 0xbcdc8cc93d179e7bU, 0xba922c8c3cc3dbb6U, 0xbbc7cb1d3d7e4536U,
  0x3b998905bd70af70U, 0xbcae664ebc35d468U, 0x3810b9ccbd1083aaU, 0xbced28e4bc084179U,
  0xbd227fe9bbd33254U, 0xba271e4f3cdee3e2U, 0xbc7b54e5bd86f106U, 0xbd58116c3d6c80b4U,
  0x3be6d2b13c59ab09U, 0x3c0c6a1dbd109e35U, 0x3be0c9773d54f73dU, 0xbc49169f3c138cf6U,
  0xba62fe1b3d4037c9U, 0x3c818148bc11bdc5U, 0xbcaef7d13c383a86U, 0xbcb070ccbc57955aU,
  0x3cf2265bbba540b7U, 0x3caa826b3bbedcaeU, 0xbc75d62cbd87bb16U, 0x3d352b5a3c24f85bU,
  0x3b960746bbc47923U, 0xbbd8edb3bc814b70U, 0x3d0862fc3cde4d6aU, 0xbc1ed885bcb3b222U,
  0x3d0a1531bd3ee04fU, 0x3a3027423d3b1c99U, 0xbcc951c83cb82cc4U, 0x3d1345f9bd1fb581U,
  0x3d22beb4bc592490U, 0xbc4cd8ccbb172232U, 0x3d1b423dbb972766U, 0xbca9c44ebcf3a1aaU,
  0x3d0ae83dbd0b8161U, 0xbc892a9c3afc205dU, 0xbbd49991bcbf6fd8U, 0x3c8205d23cda3632U,
  0x39850906bd46763dU, 0xbcf99924bd4dbb7aU, 0xbba127de3b58efb5U, 0x3d46485bbc741221U,
  0xbd1e2878bbe03c23U, 0xbbf9f770bc80bcbeU, 0xbb9a3bd7bca8599cU, 0x3c1287bdbd00e912U,
  0xbcb29bf33d11b5beU, 0xbc0ca2123d3965c0U, 0xbc43ae48bb77b104U, 0x3bc42ec6bc4018d2U,
  0x3d391d6b3d4d7edcU, 0xbca7b831bbb1d34fU, 0xb98a9adf3d34f900U, 0x3d3a7b50ba520d0fU,
  0x3d1c20c13d5a98b5U, 0x3cc8c1ddbcb8e39cU, 0x3c92d49f3d5a3fc4U, 0xbc54a00cbcc3af10U,
  0xbc748f2bbceb9757U, 0x3d23a159bd2e0f8bU, 0xbc343e62bb2fca52U, 0xbd1aa21dbc295682U,
  0xbd1ea39eba129684U, 0x3c02e5963d53ab74U, 0x3d0b35debd259255U, 0x3c62f6163d1ec232U,
  0xbce39aaf3d1a3f9fU, 0xbd0bccadbd53bc5cU, 0xbb935d923cd69c9eU, 0x3d58674f3c3c0b9dU,
  0xbca04f3bbc6a7cd3U, 0xbcb193413c546870U, 0xbcad1a6fbc90777fU, 0xbcafa890bc618026U,
  0xbc8d903b3b16fef1U, 0x3c256d7b3b419fc6U, 0x3d5793b8bc64c3a4U, 0x3d5392693d43be25U,
  0xbc935b4d3cbe2beeU, 0x3cb725683bc000feU, 0xbc94338cbc7aff81U, 0xbcd5b3c9bcb9b3faU,
  0xbb1526483b5dd649U, 0xbd05e8e53d6ecb25U, 0xbb31c4f03cb05da9U, 0x3c7990f63c026ec4U,
  0xbca01f13bcb1c7bcU, 0xbc963dc3bc09d747U, 0x3c1aa1173c04c82fU, 0xbc9dd246bceab70cU,
  0xbcae453dbca96817U, 0x3c231383bd3da4bfU, 0xbd03a262bc76c18cU, 0xbb1c0f20bc39770fU,
  0x3d4d50913d02d5c1U, 0xbcb8688dbc3a2b5cU, 0x3c8e7ca1bcd3676aU, 0xbb837866bd130f7cU,
  0xbbbcfac83d0b39ebU, 0x3d0ec0453bb692f4U, 0xbc9886933d4d7c5eU, 0x3cef05ee3a6e30c8U,
  0x3b9c926f3bb480adU, 0x3cbf7a0d3d3b7698U, 0xbc347ffa3cc17617U, 0xbd67a544bb9f9c49U,
  0xbd32e8273ba01b5cU, 0x3d55571ebc3bac01U, 0xbce48b013d05b506U, 0x3d80d39a3b32031eU,
  0x3c56686a3a0d2a2dU, 0x3c9f1aa93d29acfeU, 0x3d8908e9bc0ab4d2U, 0xbc2f58383c3fb2dcU,
  0x3d380b9cbcf60d5cU, 0x3c6b7c973c34f754U, 0x3c8148b3bcf3cb99U, 0xbd55f9e0bd67e43fU,
  0xbb1818ec3b8eb25eU, 0xbcb9087abc04b9b7U, 0x3d3837b1bc60bdffU, 0xbd0b0dfbbc6e41a9U,
  0x3ce03a2c3cb750f8U, 0xbc75ffcfbd08f1adU, 0x3c315be2ba918412U, 0x3cb1684e3a3d1dc2U,
  0xbd6699febd335714U, 0xbc532c5d3caf8215U, 0x3c0bddb1bd13a876U, 0xbc600a673ca7d5ebU,
  0x3d597ef2bd0a020dU, 0x3da03fcc3c3cc342U, 0xbb7a3dd9bac634b9U, 0xbb6f6bdebc824a3dU,
  0x3c15d174bcc281b2U, 0xbc09dc3bbce623dbU, 0xbca1c242bca703b5U, 0x3d10626cbc287530U,
  0xbc864e0d3bc7f5cfU, 0x3d1f40793cf6b5b9U, 0xbc2d09143ccdfef8U, 0x3d9a31e83d608a6cU,
  0xbcda316fbc86107fU, 0x3cb129b63cea6991U, 0x3d0d3ecbbcb37afaU, 0x3c8aba49bd815ce6U,
  0x3d9962d33c287170U, 0x3d6e43713c77ce3fU, 0xbcb5526cbd439c1aU, 0x3d5ea6f7bd14b5acU,
  0x3ce237953d3efe20U, 0x3c6a8acf3d2ff655U, 0xbd2a83f5bcb1960cU, 0xbcb4f2eebd6c0041U,
  0xbca2c1f9bcd166d0U, 0x3c550f333d7a485cU, 0xbc90d4623cc9bf22U, 0x3d08a34abca5752fU,
  0xb8b7a194bbf77f42U, 0x3d31a6043c7e990dU, 0xbd3f990abccf6b40U, 0xbce55099bcc4733cU,
  0x3cc64dd7bd089024U, 0x3cc2a73bbc030431U, 0xbc362c2abce8ba76U, 0xbc14b9edbc02776eU,
  0xbd086a52bd4cb6daU, 0x3ac9762dbc99fd7dU, 0xbb84de3c3d71254eU, 0xbcf7b0e23c863c02U,
  0xbc6d6490bcaec762U, 0x3cd3a014bba82354U, 0xbbcd20a13d6397dfU, 0x3ba9f1df3adb4034U,
  0xbc845d0e3c1f8302U, 0x3d41d0503cb71550U, 0xbc9ad8afbc56f9c8U, 0xbca6e6c4bd59e26aU,
  0x3c104cfabc963551U, 0xbd46ba99bc452d7bU, 0x3be0fabe3b6dce5cU, 0xbd418e773d1850c1U,
  0x3d0573ea3bafe86bU, 0x3a80d8bb3b4ffb30U, 0xbbb2ce89bc675679U, 0xbd8c7840bd545d14U,
  0xbb32494bbd5ac87aU, 0x3d0cfb633d264a58U, 0x3c172a3abd0e0cabU, 0x3cc599f8bccf8302U,
  0x3cda29e13c9a7a9cU, 0x3d908ed63c343ca8U, 0xbd24052cbcf5a316U, 0x3d4dacaebba3bb56U,
  0xbcaf4780bd80b5f2U, 0x3c3c97d03c253dbeU, 0x3caa91d4bcd6dd98U, 0x3daaef933c8093e1U,
  0x3caad0c4bd85de31U, 0xbb00ba53375a7c71U, 0xbc2429e63dbc7f4bU, 0xbbfcee033d2d62c7U,
  0x3c8257d1bca92716U, 0xbd0b0c41bd151486U, 0xbcfa7f42bc6be4c2U, 0xbdb013f53d11ca34U,
  0xbca2e2c6bc94bcfdU, 0xbca4ed603d2f6b64U, 0x3d8b035abd5e98a4U, 0xbd257c0abc9368f8U,
  0x3d20260cba6b6c2aU, 0x3d8ba1eebcd4c0afU, 0xbca4dcc8bd4fa3d1U, 0xbcc7657e3c509758U,
  0xbcc48622bc98c702U, 0xbc9614133c907b0cU, 0xbce1fe9abc7bb410U, 0xbce6c1a23d20b691U,
  0xbc4a55c33d072ee5U, 0x3d578ab03cc839c9U, 0x3730b5e6bca93ceeU, 0x3c824df8bc99d521U,
  0x3dd6547bbcef60a1U, 0x3d4219713d7adce5U, 0xbc4733193d60b318U, 0xbad6c4023bdab532U,
  0x3c6874193d9188cdU, 0xbbce5e953cdb98f8U, 0xbb2d5bab3d5d524eU, 0xbd393e79bcb35409U,
  0x3cf0a9f8bd2e1751U, 0x3d1f2419bccb3638U, 0x3d7433e4bd275991U, 0xbcf4e3ae3b39e7d8U,
  0xbd680fa6bc948e86U, 0x3cdafe653df24f65U, 0xbac8cdecbd0889e8U, 0xbd23a4b0bcdeeb72U,
  0x3c38a542bb71aad1U, 0xbd7720dcbcee88e9U, 0x3a962831bd83eaa5U, 0x398ff17bbd1f7707U,
  0xbcd806583d964dfcU, 0x3c4858b3bcda1c49U, 0x3d9c4ce43ca66a3eU, 0xbd891ac13d98f947U,
  0x3cb07aa4bc074051U, 0xbc7eaf27bbd156fcU, 0x3d0dfb3fbc27d392U, 0x3ba21816bd126981U,
  0x3d54183ebd206348U, 0xbd06b343bd67ae4aU, 0xbcb02767bc82ff82U, 0x3d0f71e93cbebaecU,
  0x3d92852abd4c4c25U, 0xbc164151bd4d10eaU, 0x3d3cdafa3c2d0276U, 0x3cc8c394bd86f2e3U,
  0xbaf0422e3d6350e2U, 0xbd0f242cbb02a235U, 0xbb978f9e3c187d84U, 0xbccc2f0e3b296875U,
  0x3cb340a4bc792974U, 0xbcbb8d81bc43c76cU, 0xbc92652dbd5a8ae6U, 0x3cc40f2ebb92be41U,
  0xbd5c75d1bd2dc532U, 0xbd4edc753ca4957dU, 0xbcb06df43d00bcfcU, 0x3c1c34fcbc7c68c4U,
  0x3d146d30bcc511acU, 0x3cece9393d4e1881U, 0xbc34fab9b6c8d616U, 0xbcc39440bd2919a6U,
  0x3cbfc0243c503c6dU, 0xbb05188d3be8289cU, 0xbb380da9b9fd62c0U, 0x3cfa6999bd1996fbU,
  0x3d01b9f43cd71fa8U, 0x3d5e3fd1bd2dd493U, 0xbd204537bcf8d1edU, 0xbd7083a73b97698bU,
  0xbd0dac343d153143U, 0xbd0144053ced3162U, 0xbc746018bc7f97d3U, 0xbcb3bfcfbdaad2f6U,
  0x3d941bdeba9c0832U, 0xbc6ec94d3d4a747eU, 0xbd773d913d42cd18U, 0x3db2afed3d5ce9deU,
  0x3ce0ad1ebb7e4de2U, 0x3d8322463c5bcdffU, 0xbb64aa7b3d858dc9U, 0x3c449c223c9c2211U,
  0xbc775aeebcf3b794U, 0x3c90ba94bd533b46U, 0xbd68a2afbd43a1b1U, 0x3cde40a13cc020f5U,
  0xbc0f05b8bca9269aU, 0xbccc72edbd664a97U, 0xbc74b1883d3e0d93U, 0x3d9dcda7bcb23d9cU,
  0xba156c893cc5036cU, 0xbce090e73c266a5dU, 0x3b378dd53d1c5886U, 0xbc836d093c6de0afU,
  0xbd2b53663d94b5aeU, 0xbcae22003b75f5aeU, 0x3c2cc699bd7e65ffU, 0x3d6508c1bc4f7517U,
  0x3cb332923d3ab0a3U, 0xbc3233503c9767a2U, 0xbc913bf5bd47001fU, 0xbd27b5863c235fb3U,
  0x3c69593b3c659936U, 0x3db221e33c92984eU, 0x3d20e79c3be2c034U, 0xbd4da6b2bc0e2764U,
  0x3d96864eba2b6e7fU, 0xbd33d2dabc93869dU, 0x3bf156d9bd88e15dU, 0x3c2bfca23d1554a2U,
  0xbcb46841bd9b3f95U, 0xbc9b580dbd535601U, 0xbcc5b722bd3c14d2U, 0x3d4e134abc65c6acU,
  0x3d75b6d9bcb11fceU, 0xbd63b55ebcf2fe09U, 0xbcfb00d93d57775aU, 0xbd1c62733da64c79U,
  0xb9f182cbbce6e471U, 0xbd38aafe3c750becU, 0xbd840dbebd287067U, 0x3d81b4d23da5d484U,
  0xbd830fc6bc02b21eU, 0xbcde6b66bccc74b3U, 0x3beea3bcbd29fb8aU, 0x3d5cb347bd12d7f3U,
  0x3c5edf8bbbee52b0U, 0x3acfc5be3cb89a25U, 0xbc5ce5c93cdb2256U, 0xbd9f97d73daf13f9U,
  0xbd144653bc457975U, 0xbd0cbc76bcf84a8eU, 0xbd11d2933bc07b57U, 0xbcffc0b8bcc04aafU,
  0xbc2055733c88411dU, 0x3d63ec7b3c7225a3U, 0x3d70d1163c90743bU, 0x3da1627c3d53dedbU,
  0x3cba37f33a04a6ecU, 0xbc8c9e2b3d8153a5U, 0x3c33c39abbc69aabU, 0x3c4dfb293d895c80U,
  0xbd0278c8bc576d11U, 0x3cd2cf6abcb7aa7fU, 0x3ce005edbd94f209U, 0xbcfe02583c16a399U,
  0x3aec52193ced41b4U, 0xbcd3fe86bd320c16U, 0xbc1a3d35ba8e79dcU, 0x3d890bc4bd524f73U,
  0xbd041c343a969b74U, 0x3d8f2e063c35dcddU, 0xbd0da5193a905607U, 0x3cecf0093ccd4051U,
  0x3dbe377e3d83c3dcU, 0xbcff6df33b8dd23eU, 0x3cc1a7e6bc0961c4U, 0xbd4e5e413c09ce14U,
  0x3d0c3222bc9fb6a9U, 0xbd3b16253cacd5c2U, 0xbc0dfe46bd09fdbfU, 0x3cd64acb3d3a7047U,
  0x3ca2ad9bbcf0ee05U, 0xbcd6cb493bc7ea30U, 0xbbd1aa9b3d5c9c88U, 0x3cf6854fbbabfd68U,
  0xbce8b3493bb57d69U, 0x3d0bb743bc1e4e91U, 0x3be5cf46bd197216U, 0xbb9130543b515249U,
  0x3d3fd6493b5363a3U, 0x3d1fa8d43d037dfcU, 0x3d1bfae03cfdaa72U, 0x3b852658bd4be119U,
  0xbd490a3bbd709d3fU, 0xbcae8036bcdc0b2fU, 0xbc9e8e95bb9f5f60U, 0xbce67aeabcd7a74cU,
  0xbcba1b65bd4058bdU, 0xbd1e54ad3d09e37bU, 0xbc87f69fbcf0bdd0U, 0x3d7d74c83c4a1550U,
  0xbd8515eabd827f6fU, 0x3d659aa4bc8ee56aU, 0x3ac3b3883c6b2d57U, 0xba836332bd2e399bU,
  0xbcee636ebc93b599U, 0xbcd79f3c3d0b41dfU, 0xbd9fee4739dabf48U, 0xbd2b25953d8faa54U,
  0x3d4bbcb93d29058cU, 0x3c8e828cbc610836U, 0xbc6c98fd3bb4673bU, 0xbcaf0879bd09fbf9U,
  0x3d4bc01e3d428db2U, 0x3c3a8aa33d5c1d16U, 0xbc9dd72abd04e408U, 0xbcb1c5cb3d65e918U,
  0xbcb47dd0bbc8fccbU, 0x3c37d671bc85590dU, 0x3d359b103d1ce80dU, 0xbcacbff73bcee96fU,
  0xbd11aa453d87f7a9U, 0x3d7afb60bd2f7f05U, 0x3d068c113d590a86U, 0x3d84e7963acc626cU,
  0x3d0008d7bc463cf2U, 0xbd82f4c33d9a58b9U, 0x3d18ade8bbf97772U, 0xbccc45233d750b5eU,
  0xbca329f9bc951be5U, 0x3c9cd541ba21f5e4U, 0x3d15a40fbd227a4fU, 0xbd6b34dbbb5f57f2U,
  0x3d02350abd19d2a7U, 0x3a57d682bc3c4192U, 0x3d0edb0ebd2c243aU, 0xba8ad0bbbb0622c7U,
  0xbd46e1d43d20e2bdU, 0x3d8200833d8d6708U, 0x3da8703b3b5878f9U, 0xbd30f9313c9ead77U,
  0x3ca571f13d1c1636U, 0xbc87c6373d4f6018U, 0x3cfd16353d40a366U, 0xbd25fb233de68a7bU,
  0x3cda6f303d89d402U, 0xbccf2fc03c46a648U, 0xbd1c244d3dbdb86cU, 0xbcca0bdfbc749bdeU,
  0x3d5b91c83c094455U, 0xbc9d24533d13cccbU, 0x3c01e076bc26336eU, 0xbd56fd32bc90f16cU,
  0x3d4f6cf63c3ea406U, 0x3c993ece3dba9318U, 0x3d41ba1ebcf2504fU, 0x3c8cc8c1bcce419cU,
  0x3c2fb240bd056037U, 0xbd7861bcbc37ae42U, 0xbbb26be1bd12a92bU, 0xbd0044c43ca7a99fU,
  0xbc253e7fbc6852cfU, 0x3c16ec323d1a0eadU, 0x3899c052bb6eaa48U, 0xbd25d0febc7186fbU,
  0x3c8788cc3cd37936U, 0xbcd2bf10bcf61477U, 0xbc3e2ab6bd0e1eb4U, 0x3d28e48a3d962099U,
  0xbd1ef26cbcacdd75U, 0x3d8df6263d1a8fa7U, 0x3d41b7373bd0d39eU, 0xbd56c847bd352e94U,
  0xbd5f1a393d456768U, 0xbd4e4bd5bd1323a1U, 0x3cff66e03d9bc7c6U, 0xbce13d39bca803f9U,
  0xbd043329bd26ffa4U, 0x3cbec6f93c96d9f1U, 0xbbd65c4cbd3cca70U, 0x3d1ebbce3d984d33U,
  0x3bef80e5bb8ca712U, 0x3d8536b6b9cd2abcU, 0xbc342a81bd000617U, 0x3d3a651ebce96827U,
  0x3d2a3a06bd19c12eU, 0xbda6e438bd229dbfU, 0xbd377ccfbbb597c6U, 0xbc9120b9bcaf6cb8U,
  0x3d2c24f83a824d12U, 0x3ca8e343bc467deeU, 0x3c2958d43d45de8dU, 0x3bf8d5053cec209eU,
  0xbd2b9784bc5788e5U, 0xbb5aab56bbe57073U, 0x3bc50cbfbcf59443U, 0xbac2a5de3d5e939bU,
  0xbcb9a111bd5bde30U, 0x3d0d4787bdd8f351U, 0x3cd08d98bbc1db3aU, 0x3c99cac83c2c04edU,
  0x3d16cbebbbf606d9U, 0x3cc81877bcafc316U, 0xbcb708ae3cbb0081U, 0xbd13dec5bd16be7fU,
  0xbcaf108f3d7172ccU, 0xbab50da13c7e9f82U, 0x3d6f29aebcc6941dU, 0x3d5922183ca3227fU,
  0x3d6d14963cf84521U, 0x3cdf03053db5f049U, 0x3cd1d4f6bb227094U, 0x3bb98e183d72da61U,
  0xbcaa8bae3d73e786U, 0xbd11bce43c7e0a77U, 0xbcc721c6bd20903fU, 0x3d00e1f43c17b476U,
  0x3da531523d7db394U, 0x3d1069993d158b03U, 0x3d07e7d6bd0c9d24U, 0x3d1db4283d23ef05U,
  0xbc923bcebc9815c8U, 0xbd384a70bd3b895fU, 0xbd5624dfbc87bb2eU, 0xbc861fd23db38b89U,
  0xbced9918bd14c127U, 0xbd1f91403c462a8eU, 0x3d497a9bbd08c271U, 0x3d2969a33d872f0cU,
  0xbd2c92f5bd0eb216U, 0x3d2a71e83c4484a4U, 0x3ddfb925bc98a24fU, 0x3cd5ea9c3d00d97fU,
  0x3c69e033ba9c8826U, 0x3d85fba73d55ad26U, 0xbca882a13d28bcb7U, 0xbb1c7f4d3dd44740U,
  0xbc09d54bbc9d4071U, 0xbb831964bd05604dU, 0xbd0f730d3bf79c85U, 0xbd23cf1e3de2de14U,
  0x3d18e76abc4bd7fcU, 0x3d91c0f5bd4d1122U, 0xbc4e06ba3c19679bU, 0x3c87c5e2ba6e9bcfU,
  0xbccdfcf93d0e6fc2U, 0x3c444df8bc85f8c7U, 0xbd689a503b973615U, 0xbc9dfa0f3d56249eU,
  0xbd62f0b43a124dabU, 0xbd114397bd55a48fU, 0xbd4f4a74bd8c444aU, 0x3cae1b483d8e9fafU,
  0x3d130e86bb977c7cU, 0x3b88bee2bd70a41eU, 0xbd064eb0bb3e8833U, 0x3b81586c3d77a7efU,
  0x3c6be4b33c870616U, 0x3d25303d3d813259U, 0x3c495c10bc42abedU, 0xbca9e0013c8f932eU,
  0x3d604b93bbe09910U, 0x3b40f9d8bd52727eU, 0x3d305de73cbf777eU, 0x3d0b643bbd3abb0fU,
  0xbbc75882bcdf4f41U, 0xbc7341b3bcbd9e14U, 0x3cac7a633d893424U, 0x3d325409bd9a73b7U,
  0x3daf06da3cf069d6U, 0x3cfe16b13d961a00U, 0xbbc54ccc3d489e9bU, 0xbd2508503cf3b252U,
  0x3c4c32e2bd31c1deU, 0xbc22e9353c52c116U, 0x3cfe65aebd3b488bU, 0xbd0d6806bc719c55U,
  0x3a475dd13cfd8468U, 0x3d39cf86bd2e49cfU, 0xbd3650af3d3c7784U, 0x3cd66de53c6323d3U,
  0xbc288d343cf661f8U, 0x3cdc22093d2119b1U, 0x3cd7da0bbd449fdeU, 0xbd6d0e913bf999aeU,
  0x3c902b3d3d069866U, 0xbc9a3ade3bb0aa07U, 0x3cbc4a57bcadd241U, 0x3d5baa56bd5da8beU,
  0xbd0e54733ca910c4U, 0xbd6462a4bc489083U, 0x3cda5e4f3ab41708U, 0x3b67eec33da01bc9U,
  0xbd22cc77bc6af236U, 0x3d06b5d23c8dc4d7U, 0xbd2afb853cbe5528U, 0xbd77a5fd3d4e3e9dU,
  0x3d1119703c326969U, 0x3cf11ab1b8d90d2fU, 0xbc816466bc3b6516U, 0x3d5c22093d022b9bU,
  0x3c222f503d2352bdU, 0x3c4e6170bd6cfd4aU, 0xbcfe97c4bd508548U, 0x3cfc8787bd457269U,
  0x3cd3c60ebc89b29aU, 0x3bcfaaf2bd18daedU, 0x3d059fd23b11e8c0U, 0x3d0195643d1d6e9fU,
  0xbc4eb01fbd266425U, 0xbd87aabbbc10aca0U, 0xbcb800713d3113b7U, 0xbdde00ab3d4d37f8U,
  0xbc9df2033cd1ebf4U, 0xbba6e05e3dd8c208U, 0x3ca7ea7fbd41675aU, 0x3cb354a6bc97cacfU,
  0xbbd6fe3b3d5f5c76U, 0xbc8cf994bcb3aa89U, 0xbd812de23ba84381U, 0xbbf76334bc05d603U,
  0xbc983a4c3d5a9454U, 0xbbc1d2cd3d3b8a7bU, 0xbcbc6e4f3cc6887fU, 0xbd5af899bd6cce46U,
  0x3cc2cb263cbd74f2U, 0xbccb9fbabc1642e0U, 0xbcad489fbc984129U, 0xbd094f38bd001f09U,
  0x3d86b28f3d675454U, 0x3b926e0b3cd367d4U, 0xbb808a673cb47534U, 0x3d50de7cbcc5929bU,
  0xbc7cf2b33d36d2beU, 0xbc1f8c94bcff3eb9U, 0x3d684b15bd066010U, 0xbd20bf763cb8a6b8U,
  0xbd216868ba22d256U, 0x3cb4852dbd9320b9U, 0xbcf2fabebd2d1b13U, 0x3db7e14e3bb46aacU,
  0x3ce4c1f63b9b6a05U, 0xbba54c503ce31dcdU, 0x3ca04f67bb694d00U, 0xbc9ceb50bceb2072U,
  0xbdc4cef8bcd7a5f0U, 0xbd24ac593c3eedbbU, 0x3d604dcc3d683773U, 0x3d32594b3c9083d3U,
  0x3dabc828bcf2a309U, 0x3d95e0413c96cc62U, 0xbc9c7847bd40c8e8U, 0x3cb3edf03cfd6dc7U,
  0x3ce30c4c3d10a82bU, 0x3c5cb3c2bc3bb388U, 0x3d860b42bd442aefU, 0x3cc0736e3c393455U,
  0xbc41918b3d2f5cc2U, 0xbc603932bcccca9aU, 0x3c843b313d09c920U, 0xbd01790d3d8649dcU,
  0x3d4f0b56bd028e7fU, 0xbd100db63d5b5f0cU, 0x3c86512abcbb30bbU, 0xbd432913bc903344U,
  0x3b0bb1b3bcafc63bU, 0xbd3c117a3c9819caU, 0xbb57377abd354cf0U, 0xbb185599bbdcf352U,
  0x3bebcdb2bc09a5a2U, 0xbc8d6e0fbcbd8ed5U, 0xbcb9a2003b09592fU, 0xbbb67328bcb13eadU,
  0x3cfff010bd28aa35U, 0x3c8f61dfbd454319U, 0xbd4384c7bce5ad79U, 0x3ceaaf9dbcfa373aU,
  0x3c788a903c7cbe34U, 0x3c1a79293cf3ae33U, 0xbcb174c2bd24d864U, 0xbca25e48bc700711U,
  0x3b53315dbcb6aa6dU, 0xbb68a5303d21b867U, 0x3d136d4b3c0fa39aU, 0xbd5545f83c948d55U,
  0xbd1435a83ce7dbf6U, 0x3b150a7ebbc596c6U, 0x3d10e21bbcc825ceU, 0xbc501e9f3d68f9b9U,
  0xbd101b96bc74785aU, 0xbcb90060bbbdb74cU, 0x3d5b5dbcbcb73945U, 0xbcfc2e6d3c92eeb7U,
  0x3d2eecdabc380939U, 0x3d20616bbcf9149aU, 0x3c7ea67cbcb98beaU, 0x3dc0441f3cd16e2fU,
  0x3b51cb1f3cb03b05U, 0x3d383dcc3cead9baU, 0xbc98b076bd948348U, 0x3b90569e3d57dfc9U,
  0x3d781129bd5f7d04U, 0xbcc961853ce4a851U, 0xbc09caa0bd0c4dfdU, 0x3d2a8723bd1bde04U,
  0xbcc378803d793e8eU, 0xbd477ab2bc9f33a4U, 0x3c37f0ed3d7647c2U, 0x3c96eb9d3c417d06U,
  0xbcf459dc3d078e26U, 0x3afdad7f3cd2dca4U, 0xbbbf05cb3d570826U, 0xbce846da3c538491U,
  0xbd1495823d9ca0d2U, 0x3c03781a3d0af514U, 0xba349197bcc6e021U, 0x3cbf286cbbe34406U,
  0xbc050efc3d55e2beU, 0xbc3936013c4bf934U, 0x3d06b19b3d1d4538U, 0x3d8475a73d3234ceU,
  0x3cf9f6e23c4b1813U, 0xbc06aeafbd89de42U, 0xbced8d233c152668U, 0x3c44b7a5bd020c0eU,
  0x3ca33c3fbc003557U, 0xbdaa130fbd80d63aU, 0xbc8fa0f73d91f6a6U, 0xbca888863cb92815U,
  0xbd178eaeba932540U, 0xbd822851bc06394aU, 0x3c4e663bbd8f1739U, 0xbc4304483cc0c5e0U,
  0x3d8d345cbd790d1cU, 0x3c5413ec3d20df05U, 0xba7957abbbecf8fcU, 0xbcdbe50cbc33a2caU,
  0x3cff57a53d94eeadU, 0x3dea460d3c9617b0U, 0x3cf1e9843c275b20U, 0x3d1828ca3d5a429fU,
  0x3dc2e0d53a993799U, 0xbc4b251bbcd42130U, 0xbcac31d43c9beb93U, 0x3baa5ffd3baa4228U,
  0x3d81cd283d2e5449U, 0x3d1ef4d5bd28ab4aU, 0x3d6cffbc3d41d413U, 0xbc4803783ddc8869U,
  0x3c71df993c4ad43dU, 0xbd2d07913cd2e23bU, 0xbc98c5f4bd24aa10U, 0xbd2d7ba9bd63046aU,
  0x3d1d6243bb2af2a6U, 0x3d0445433c2c48e5U, 0x3cd81e953cb29f8aU, 0x3baa7bd13d01e361U,
  0x3d13389fbd024886U, 0xbc1437bfbccc0e1eU, 0xbcba2a3bbd056962U, 0x3dbdffd93d050a80U,
  0x3bc735bf3ce92866U, 0x3bee682cbc2530d3U, 0x3c856ffabc8828d6U, 0x3d56391bbcd03c2bU,
  0xbcf3dfb73d098696U, 0x3d065f873d93747eU, 0x3dbaff83bd0307c0U, 0x3cc769823d021c74U,
  0x3c405cffbdb76bc7U, 0xbd0e78b43d29db2fU, 0x3d0020833c0f6222U, 0xbc233eb3bc254b12U,
  0x3cb775283cafbb4cU, 0xbbd199ca3d28ded9U, 0xbd0ae7863a32c37cU, 0x3ce0b93fbd224d3dU,
  0xba8b85653d026cceU, 0xbc95b032bbb0870bU, 0x3cd7b3e03d69658cU, 0xbd0063b93b36ac86U,
  0xbdac1a8b3c1e6ba3U, 0xbd2641f4bc6498f3U, 0xbcec65efbd885ad8U, 0x3d7f4b813b9baa94U,
  0xbb817f2abca2f387U, 0xbd37efbe3cf15ac0U, 0x3c64799cbd6eae60U, 0xbc4d93c3bd694f98U,
  0xbadc59f43d7e3aa7U, 0xbcc1aa253d14343fU, 0xbd17c6af3b971125U, 0x39638ab73d40f0d9U,
  0x3c4c87ee3ccf58b3U, 0x3d122ae4bbc94977U, 0xbce78d36bd97023fU, 0xbd88edc63c9dcaceU,
  0xbcbd8f3e3ca09ce6U, 0xbb4759f3bd8e424fU, 0x3d86fac93b8df774U, 0x3ccd5fb73b61456cU,
  0x3da3d2febd3b259fU, 0x3c021fbbbd46211eU, 0x3d182542bca1b713U, 0x3d26041e3cfb1875U,
  0x3c39303e3baa2a8dU, 0xbd1ae73f3d3a5298U, 0x3cdd86183cce2ff9U, 0x3b386dc43c5ea2f6U,
  0xbc0c4220bbd7c9c2U, 0x3c31e648bc835d68U, 0xbd209484bb879427U, 0x3c662b59bd0b0000U,
  0x3cec65e4bd3ff61fU, 0xbd2df800b9963deeU, 0x3d84fc1fbd817583U, 0x3bb7c7b23ca23f7fU,
  0xbc8202083d4ea9b1U, 0xbc02d658b9df40b5U, 0xbc4ee746bd102af9U, 0x3d9dd93fbd977318U,
  0xbb9a93773dae9d82U, 0xbc2a604d3d101a92U, 0x3c9284ea3c2fd326U, 0x3d9db0b1bcdde8a2U,
  0x3d9622293d91834aU, 0x3cb459823d13a139U, 0x3d114e513d89a652U, 0x3c5d825f3c292baaU,
  0xbd8d6864bd3522d1U, 0x3d443c703d05de4bU, 0x3c9489b53d160aecU, 0xbd24d241bd9aa6a4U,
  0x3d84bd7e3c7f5848U, 0xb9478cb63d8d583eU, 0x3c66582abd0580ecU, 0xbdb1019abd84a16cU,
  0xbda3624cbb76c208U, 0xbc05df663cf6ab23U, 0x3d1ace673cad701aU, 0xbd0197c93dc0a08aU,
  0xbc8f7514bc138b1aU, 0xbcc3ffdcbb3ebc7aU, 0xbc5fa5fabbdbfef8U, 0x3c6ead5a3c944b02U,
  0x3d39f09d3d00dbc6U, 0x3d2332e3bbe2bbf3U, 0x3cea4c813b0b5b90U, 0xbc876d46bc8d30ccU,
  0x3c5318babce6fa48U, 0x3acb144a3cc5e294U, 0x3d8e3baebc5655cbU, 0x3c38e3d5bcb34b9eU,
  0xbcc881343cb9eea2U, 0x3c9bfadaba19c58bU, 0x3c8812713cdfb4faU, 0xbd22b0c83b3fbfadU,
  0x3c207dc6bcee9805U, 0xbc644021bd778c61U, 0xbce5dd4b3d316071U, 0x3d37d9f53cb4336dU,
  0xbbf91e2abd0ce761U, 0xbc5744793dbacaf6U, 0xbd4255723d46b1e7U, 0x3d7de567bc96cabaU,
  0xbc3b9ed23c8d7654U, 0x3d09a5a3bd6062e8U, 0xbd83058bbd3348b9U, 0x3c8718c7bc87e1e8U,
  0x3cb80a423d06ec53U, 0x3d25960c3ca8ae38U, 0xbb684c3bbafa5c19U, 0x3c3bc047bd5f3082U,
  0x3cacedb6bdb44759U, 0x3d8d9473baab57d0U, 0xbd2897f93ce74265U, 0x3d87bc253d3edc20U,
  0xbca467ddbd08f886U, 0x3c9925c33d8e2007U, 0x3d2756e2bb128b81U, 0xbc11f7923c94aa4eU,
  0x3c4b9ed73d8c9448U, 0xbd0def97bcb173a0U, 0xbb3663123c844f48U, 0x3c784d163c874809U,
  0x3c06c4da3d464854U, 0xbb85b7973db68eb9U, 0xbcf77681384f6d19U, 0x3d5399e5bd081226U,
  0x3c4d7dc3bdb11ec9U, 0x3c8c1648bd2530a5U, 0x3d78ad63bca7df33U, 0x3cf71c55bd972149U,
  0x3d1e19a3bc2d4040U, 0xbc417cfdbc6ed6b2U, 0x3d5367e9bd18ab42U, 0xbca2e203bc2b8b9cU,
  0xbb4b30f13c8224adU, 0x3a92bd90bc6604d2U, 0xbc8e3416bd37658cU, 0xbd83034d3ce9cf41U,
  0x3d3ffdd43c99db3eU, 0xbc9914d3bcdf1aa6U, 0x3c3016403cfa8c53U, 0xbd3d5df63d91889eU,
  0x3c1feb69bc48775bU, 0x3d8a222b3cda7dffU, 0x3b1bf570bc750d03U, 0x3cb21330bd1aff8aU,
  0x3c907f04bc0b1d81U, 0xbd014159bce07c0dU, 0x3e063c24b888e63cU, 0xbd78deba3c77b4ceU,
  0x37b302683d983ef0U, 0xbc58f0d5bc53fa22U, 0xbd9530e9bccfcab8U, 0x3cc19d1d3c813779U,
  0x3d57bde7bcdc9db7U, 0x3ca0224dbd63ba25U, 0x3d31664abd614a52U, 0x3da53ce53b22241fU,
  0x3d978f5e3c1024a6U, 0xbd98c2d3bd69738bU, 0x3ca0451d3d2d68ffU, 0x3d6f21d8bb814aa9U,
  0x3c04090cbb49651bU, 0x3d3331e3bd574b7dU, 0x3d00d9513ccd0c5dU, 0xbcaa1be23d6149d5U,
  0xbd3dba9cbd24b754U, 0x3cdfd36cbc450eb1U, 0xbb82021e3c7c0a46U, 0x3d1a4a80bd2b8e4fU,
  0xbc74e23ebba5c9f6U, 0xbb9a824ebc5b7266U, 0xbd4c27b0bca0335cU, 0x3d289198bc826de2U,
  0xbce907dd3b792373U, 0xbd26bcd93caf03eeU, 0xbcb19bd4bd1e1acfU, 0xbc02d4adbd14866aU,
  0xbb837f01bd8d1c24U, 0xbc61380dbd38df23U, 0xbcc2b3c73cd6cf41U, 0xbbd3a3033bc878f5U,
  0x3c90a98d3a2a407aU, 0xbb2afb573c80cef2U, 0xbc5e25a3bc10a4ddU, 0x3c4b58133aeed9d3U,
  0x3d01f3223ca8e537U, 0x3d37647c3bf4fa07U, 0xbd08bb47bad33f3bU, 0xbd3a1cc43bb5922cU,
  0x3c365b4dbb94a251U, 0xbc34082abcdd50eaU, 0x3b706d953cdfba39U, 0xbcb2987b3c5d0da2U,
  0xbcd9e838bd4a4f8fU, 0x3c8417e1bbeca66eU, 0xbcccd42dbcba95f0U, 0xbbcd08f8bd3e4a49U,
  0xbb70112abd42ccfaU, 0xbc7e9ae6bcba8fe6U, 0xbd000d26bba1a1b5U, 0xbca209f5bcef0debU,
  0xbbe07575bce2eecaU, 0xbcc0802dbd1965f9U, 0x3ce4a09fbd1200f8U, 0xbd10abaa3c6628c1U,
  0x3c7847eebb23ef5dU, 0x3ccb1620bd45f597U, 0x3b1ba3373d15668dU, 0xbb9510e7bc2b87eeU,
  0xbbc03aa7bd2db2ccU, 0xbb540a3ebd0a0fa4U, 0xbc6580fabd938916U, 0x3b059a6bbcaf23a9U,
  0x3d1389243b82097fU, 0xbba3f84bbd12d3a7U, 0x3c842e52bce330e9U, 0x3d656279bd194773U,
  0xbcf77f2abc44608dU, 0xbcdac07bbc2b852eU, 0x3bcc2f26b9b074e7U, 0x3ad8a10ebad51dabU,
  0xbcb1b604b80007afU, 0xbd2997ba3c58b267U, 0xbc8402ab3d4227efU, 0xbcbadc0abba3d6c6U,
  0xba521b46bd00cc17U, 0x3c648ad2bcbaf773U, 0x3b878681bcc2d2a5U, 0x3c29dd263c6587efU,
  0x3ba241c73d29d9b4U, 0xbc427c72bd4dd1e4U, 0xbd073a2e3d193aa5U, 0xbd38c826bc7383beU,
  0x3ac4c7d43cf6de9cU, 0x3bbf4c18bd37e8d0U, 0xbceb06103d2dccfcU, 0xbd0e7b6abcf8e988U,
  0xbc221fb73d8c8067U, 0xbc0b3e97bb7b6da0U, 0x3cad1a0fbd0c6d3aU, 0xbb8668e3bc6ff611U,
  0x3ca4a32ebcbf1bfbU, 0xbd4c7257bc216646U, 0xbc8e58b6bc02a5bcU, 0x3cf14804bd300c72U,
  0x3d635ec9bcd8c99fU, 0xbd033958bd101f2dU, 0x3aecbc8f3ce12743U, 0xbcaac9d73cb3931dU,
  0xbcee08aa3a33e62bU, 0xbceee9c53c124c22U, 0xbc09a8d83c3833e6U, 0xbd35f3243cb6b555U,
  0x3c31e8f83d564659U, 0xbbdf4bc13cabed82U, 0xbcfba19dbd1f99fdU, 0x3cd1857b3cc91710U,
  0xbaee6a3fbcfb9f84U, 0x3cf0a1c0bcc453f6U, 0xbcc98826bcf946ecU, 0x3cbcb022bd83768dU,
  0x3d78ae2b3cc15509U, 0x3bc83dcbbce3df99U, 0x3c47b81b3a1c2608U, 0x3d6d40a93d4549f6U,
  0xbcedcd7e3cd7cadaU, 0x3cb19392bdb656ceU, 0x3db6d7c3bc88ee0eU, 0xbd088b073c371c29U,
  0x3c1a1fb63bc1b5a4U, 0x3c8ec39abc93a1d8U, 0x3c669ce33d2e8b86U, 0x3b30f0063d12e78bU,
  0xbcb02f47bd09ecb3U, 0x3c6194173c373c15U, 0x3c1c82d7bd35df94U, 0xbc327960bc75905aU,
  0x3bf759543cac489bU, 0x3cfce713bd167f21U, 0x3c26db7b3d2a1600U, 0x3ceaec35bc6b8062U,
  0xbd273440bbc67cd9U, 0x3c9afcadbd0c3dedU, 0xbcde18a33d068c90U, 0x38bfd8d6bd796409U,
  0xbca9ff613ca55987U, 0xbcf3845abc9851d5U, 0xbc5c89eb3c3e2dc6U, 0xbd23e936bd1fff39U,
  0x3bfd0ad63b9ecd3cU, 0xbcbd50cb3c4cc9cfU, 0xbd321c713a8eab28U, 0x3be081ce3c04c8dcU,
  0x3a678322bcd80921U, 0x3c2286da3c3e2f3cU, 0xbd3f99b2bd00b426U, 0x3d24c9d1bd4053c1U,
  0xbc55d91ebb31719bU, 0x3c2eba683ca875b9U, 0x3d56d7d8bcefa641U, 0xbc47f355bceecb25U,
  0xbac702fc3c6e3acaU, 0x3d13f4eb3d476691U, 0x3cead50fbd378a40U, 0xb9d06615bd39eeedU,
  0x3c252bddbd15d0b8U, 0x3c91c0f53d572697U, 0xbcaec9df3d43c91dU, 0xbbc087203cd9b84cU,
  0x3c070cf9bc7479d3U, 0x3a87736eb9af1c5cU, 0xbd0a44ea3d0dd665U, 0x3d21f5fd3cd7ff77U,
  0xbc5459edbd0da30dU, 0x3c6e57a83d437894U, 0xbd261b803c170091U, 0xbcd9a0dfba1aeec8U,
  0xbc686819bbc2c681U, 0x3ccbcc4f3d7c8bf4U, 0xbcf021e83d18157aU, 0xbbf46da53b9a510fU,
  0x3cc8f1a1bcaa9550U, 0x3a739cdebca1335fU, 0xbd341267bc94c329U, 0xbd1f57583c664232U,
  0x3c5f4be1bcf8fe25U, 0x3c5ce3ffbd368790U, 0x3d0ba1b3bb65cd0bU, 0x3d2272e23d2fbc6bU,
  0x3ce4af34bbf04db2U, 0x3b461820bb8b7ab4U, 0x3c5e3b4abd123019U, 0x3d10af863a8bd54bU,
  0xbce9e7f4bc8d2cc9U, 0xbca518e0bcecaeddU, 0x3b187cf13c9fc31eU, 0xbd27cdadbc9b31e7U,
  0x3cb9f45f3c0d7c76U, 0x3ced5ea3bced8d30U, 0x3ca81335bcf5dc7fU, 0xbc9949c63d36b137U,
  0xbc46e6d6bbd9ca4bU, 0xbc8a67cd3c4a8140U, 0xbda5e19cbc81aadfU, 0x3a2f19393cf5857fU,
  0xbc0dfa89bcd8e26eU, 0xbd0a705c3c29344aU, 0xbd0f04a33be9ea14U, 0x38e8f9efbcab43bdU,
  0x3a59d489bcd5d6c8U, 0x3d41e78fbbd16433U, 0xbcc2b2353d032fb5U, 0xbd6cba02bc1f6c80U,
  0xbc94c9b338f6b9ecU, 0xbbac4f123bb29ae2U, 0x3cbf7c4abb3ef127U, 0xbc9b08c0b97e6670U,
  0x3d5773e7bd087774U, 0xbda45b49bd266605U, 0xbca7996cbd274120U, 0x3cbf5fa33d0067e6U,
  0xbd173577bce458b9U, 0x3d190cc93d63f983U, 0xbc138911bca39ef3U, 0xbcb1b9013c3119f0U,
  0x3cad596e3d18d5b8U, 0xbd2154a1bcf2dcbfU, 0xbcfafa203c804bbcU, 0xbb7fac853bf284e5U,
  0xbb6c12eb3d150fb1U, 0xbb826e88bc7cfd91U, 0xbd1a14fabcf76944U, 0xbc8bebf93d28eba6U,
  0xbd10c1bb3d1022c4U, 0xbc03609fbcb7851dU, 0xbc9f1640bd089062U, 0xbcd22a2e3c846f2bU,
  0xbc781472bc8a7aa4U, 0xbb484e233c9e4949U, 0xbc43bc86bd06d470U, 0x3c7c9b10bcf490f2U,
  0xbc53d752bcfb6c05U, 0xbc8291a4bd1b4330U, 0xbc9d6b9e3c92fc05U, 0xbb528c6b3bff60ffU,
  0x3d112e9cbc92431dU, 0x3c2714503c5833daU, 0x3d2d149d3cb57785U, 0x3d6038f2bb8ca667U,
  0xbc68a21abc243221U, 0x3cab9ef0bc9a1cbdU, 0xbc9b67a1bce8b861U, 0xbd083ec43cc02b9aU,
  0xbd557a57bd2306d7U, 0x3b15093fbc6fa897U, 0xbd46d05fbd5bf0cdU, 0xbcecbff4bb83fea9U,
  0xbd93364dbd148e95U, 0xbd255e57bcfa6076U, 0x3bcbcc8abc6418baU, 0xbcac9531bbe3d65cU,
  0xbce75eec3c002b7cU, 0x3bc799c1bd348cbdU, 0x3c6b0294bbe6c51cU, 0x3c7cf5623cbb757eU,
  0xbc765f43bd8123e9U, 0x3cbd27f4b81ee31eU, 0x3c35d7b3bc79f814U, 0xbd73a5943c4598c3U,
  0xbc9cfdb4bc092f8cU, 0xbd29ccef3cdf8430U, 0xbc15ab34bd1b26e3U, 0x3a26516d3ceffa6bU,
  0x3d20e6cfbcc241d0U, 0x3cacc0e03d33fd7fU, 0x3c378e56bcde9ab8U, 0xbd2c1135bbd6d5c4U,
  0x3d951a8bbd282a75U, 0xbce511663d0e297aU, 0xbcebd8f8bc218107U, 0xbd07d5643cc6c10eU,
  0x3b8b7a913b1d554aU, 0xbd3d3a1cbb804d07U, 0x3cdd88efbc902302U, 0x3c8927793c9e3012U,
  0x3c3c02733b83033bU, 0x3d408b27bc13b2f5U, 0xbb51a6823d83fab5U, 0xbc77c9b9bc5c0c68U,
  0x3c8803e4bc8c517eU, 0xbc270bc23b8848c1U, 0xbca72b87bc28797eU, 0xbaf703143d1e3e10U,
  0xbc0aac7ebd0529d3U, 0x3ba2eb453c301aefU, 0xbca2487cbc63c3a8U, 0x3d0d1831bd2759acU,
  0xbca7f01dbce77beaU, 0xb91e82413c979527U, 0x3d2b01553d182ef8U, 0xb9743656bcd8b794U,
  0xbcbced083c762b76U, 0x3c4a0a8e3b4ea53fU, 0xbc1b2e39bb5c4aabU, 0xbd3b37f9bd0cbd53U,
  0xbb37c841bc32ebf5U, 0xbd75e5003d87bae3U, 0x3d7dda99bdb38110U, 0xbb29c5b53d29122dU,
  0xbcc6d8733d70fbedU, 0x3bb2c46e3c2eedc3U, 0x3b2e30a83b8a2587U, 0xbc247a17bc6bf30fU,
  0x3d1e51cd3d57546cU, 0x3dba18cf3c0e4b3dU, 0xbcadbcc0bc01be60U, 0x3a95ac553c48e17fU,
  0xb9e0bed1bb9d6010U, 0xbce3642c3d36e16eU, 0x3cedc6b6bb7bcd1aU, 0x3d9eb76e3c44135bU,
  0xbd758d1f3d36a60eU, 0xbcc4ba523d052141U, 0x3d03643c3d834ee7U, 0x3d865d70ba1a9f8eU,
  0x3ca191c2bb0ad5d8U, 0xbb953848bc8f082dU, 0x3c4fdb50bd1bcc52U, 0xbc24f0bcbd386ff1U,
  0x3d9f103f3c0d7282U, 0xbc739771bd468e84U, 0x3c0ce4483d0a275bU, 0xbd2abf513d13abcaU,
  0x3bac595bbba9e652U, 0xbd20ebb43da47be2U, 0x3d6041983db56af8U, 0x3c5f892abc397dc6U,
  0x3d0bd7933d67efcbU, 0xbd824c3f3d72082fU, 0xbcc2f6e43d80bb98U, 0x3c74fc513d76e65fU,
  0x3d53a79f3d28c2ffU, 0xbbf7f646bc090b7aU, 0xbc31a9a5bc86e9f9U, 0xbccce4303cc253c4U,
  0x3c8e25bc3d66d0d7U, 0x3d3c10df3c8f09c8U, 0x3c3325a5bccc0dbbU, 0xbdb2821ebbd3ac74U,
  0x3d3b8198bc10ec00U, 0x3d7685d6bcd5e92bU, 0xbbf50c413c3a62b2U, 0x3b0c0b203c36dc11U,
  0x3bfc524c3c9b9dfaU, 0x3b7c4a733d156b39U, 0xbc149eacbce04ed2U, 0xbc8b013ebac56038U,
  0xbcd5a86e3d0010a4U, 0x3d62c1d03a60ae2eU, 0xbce830293d1f5869U, 0x3d4bad8b3d87ff68U,
  0x3b0e775c3d3f9bbcU, 0x3d802989bd3848acU, 0x3a2ea345bc7eff6aU, 0xbcb554dd3cfd521dU,
  0xbb83f3643ba4c66cU, 0x3d4039943c89cce1U, 0x3b4864dabcbc6447U, 0xbcac7186bc515498U,
  0xbbfd5e37bcb5a68fU, 0xbc0bd20b3d13f36dU, 0x3dc2097dbd4155b3U, 0xbdc4a9323d4b1143U,
  0xbd984347bc40da76U, 0xbb7cc577bbf81484U, 0x3c7da0d3bb7d5adeU, 0x3d8af29ebd287f1cU,
  0x3d28ce653c091b1bU, 0xbcaea2d0bd1d59deU, 0x3be0254bbc3cce6fU, 0xbc52a1acbca5aab4U,
  0x3ce8b547bcc429f4U, 0x3d81f1db3cf677a9U, 0xbc3d969bbbe4e47bU, 0xbcae71bcbd24d0efU,
  0x3baff5dfbbcb57f1U, 0x3c1d0907bc3db308U, 0x3cd8a08fbd934fc4U, 0x3bac94a03d7f68c0U,
  0x3d0b2d8c3be40e96U, 0x3b9668063ba27088U, 0x3d645b6abcc34de0U, 0xbda119193cc19b37U,
  0xbd45cf5abd007366U, 0x3c61049cbb5700f7U, 0x3d7f77fabc7b01cdU, 0x3d1118c13c7d5e09U,
  0xbd0d6a113d6c65bbU, 0xbd8009f13d4aaa77U, 0x3d8d5111bd0f96eaU, 0xbb9b299d3cf0d46aU,
  0x3bf7eb853c26fcefU, 0x3c27780d3bbb2d04U, 0xbaae76b53d3d6a18U, 0x3d14f359bd94f563U,
  0x3d26c38ebc2acab4U, 0x3d6a438a3d8d2a57U, 0xbd1978ac3ca4023fU, 0x3d93da9ebbe4f03fU,
  0x3d6efc65bd94a6c0U, 0xbc59c83c3c1a2c43U, 0x3ce161763d801de4U, 0xbcdde96b3d553425U,
  0x3c38a512bc8e97aaU, 0xbca68f973d8cf8cbU, 0x3da58bf03d2110aeU, 0x3d352011bc6064f8U,
  0x3cbfede6bc4b4373U, 0x3d10075dbd2a7edbU, 0x3d3d81aebd4b3941U, 0xbd74f544bd8ae0e6U,
  0xba2aa06f3d48aef0U, 0x3d06d9e1bcddd9b7U, 0x3cd3b02cbc7f0737U, 0x3b6b383b3c2435c5U,
  0x3c6eb4993c288f0cU, 0xbc3f68cf3d366899U, 0x3d8c02d83d8e3ba2U, 0x3d4956e7bcbea9cdU,
  0xbc94773f3db80071U, 0xbb0c53df3d566618U, 0xbba91be1bd981b5fU, 0xbcab00633d836043U,
  0xbd9955913d4aa65aU, 0x3d7caf4d3cb05e61U, 0x3bcae5733d71fa85U, 0x3d1ab1423c0977aaU,
  0x3d95c15bbac58e3eU, 0xbd6a8ae33bccbc6fU, 0xb98d3c69bdab331eU, 0xbdaa6084bd1523a0U,
  0xbba6c24f3c3c6093U, 0x3d5a9081bcb4eb25U, 0xbd4ca34d3c91a39fU, 0xbcdcfd19bd0ce050U,
  0xbd2ba8213b6f218eU, 0x3b30c2fd3d2fdb17U, 0x3b6a5389bc777d12U, 0x3d51f7a13cc5a3acU,
  0xbb380e69bddc8b87U, 0xbc908facbd8c9518U, 0x3cd0d59dbd2079f6U, 0x3d9b676739ab3759U,
  0x3d2fd91ebbc1c86aU, 0x3d91f1e6ba7bebbaU, 0xb9884c623d9c7a5fU, 0x3c3261353c997bb5U,
  0x3c25e9033cbb6ffeU, 0xbb5d3b6f3b3dfbf2U, 0xbd6e3a84bcbd434eU, 0x3cd9b1d6bd1c373eU,
  0x3d4e65203c0ba54dU, 0xba7e0f6ebacc6eb3U, 0x3c2ee5cbbd0259f8U, 0x3d0f0b8bbcc477c1U,
  0x3c793fdb3bfa5c54U, 0x3d46cfeebd2c3024U, 0x3d2f4968bc4da152U, 0xbd32f9243c87c1b7U,
  0xbc22dd953cc59e59U, 0xbcc035f2bcbb904fU, 0xbd4cbea43b269cd0U, 0xbbc2f3ef3d90e960U,
  0xbb9591e6baeed195U, 0x3bd4ab63bc9989c0U, 0xbd19c8203d483a0cU, 0x3d1e4fb23d22dfedU,
  0x3d7adccf39354c8bU, 0x3d0cde703d883549U, 0x3c2f254dbcc161d2U, 0xbb834c9ebd79ad01U,
  0x3c54556db9b4d79cU, 0xbc77928abc3ee915U, 0xbcb220e13d2318e6U, 0x3b609c43bc536294U,
  0xbc8ead2a3d947f8fU, 0x3c14fe933cb87738U, 0x3c3d3387bc1417b4U, 0x3da5f2923d224666U,
  0x3c07a7803da1ba7cU, 0x3d8ce4093d9da955U, 0xbd95d87abc15faddU, 0xbd6e0a593db02224U,
  0x3d9b5f90bd57b784U, 0xbcc06eaa3d6d5b89U, 0x3c4c77acbbbdef0fU, 0xbd0e9856bdaf2309U,
  0x3cb9dbee3d4b50bcU, 0x3d9c1a493d5cff3dU, 0x3d4cb02c3cd88a6fU, 0x3d0fad41bc093d1fU,
  0x3be435dabc8fee0eU, 0x3c14d7bb3bca5c98U, 0x3d688f773dda7555U, 0x3e0d2c9c3afd3f07U,
  0xbb8b1897bc077562U, 0xbc656588bc8933f5U, 0x3cc876253ad0202dU, 0x3d0788ab3b0990e8U,
  0xbcbd004f3d3e4d0eU, 0x3c99ce92bcab1173U, 0x3b723a41bd19cf73U, 0x3d5d7e6fbd48497aU,
  0xbc8cc28dbce8cab8U, 0xbd9071993bcb20ebU, 0xbc88a5183b0cf438U, 0xbc6ba4f03b8b8cc6U,
  0xbc2fc06f3d01aaf5U, 0xbc2252893caffcf3U, 0x3cf0d0723d15ecd6U, 0xbb9be50e3c4c35cfU,
  0x3da400ca3d26c1edU, 0x3d35ae1e3c6f0fb6U, 0x3d3256db3cc9acccU, 0xbc91563cbd3df820U,
  0xbcd92b2a3ad5564eU, 0xbbb5879aba4865ecU, 0xbd34f23fbd5fcb97U, 0x3d7586b53d3edc0bU,
  0x3d3e1f7b3ca83119U, 0x3d5bdd1a3d74e35fU, 0xbc266f0d3d4eba3fU, 0xbd56c099bc84e3e6U,
  0x3cc2abc0bd7d311aU, 0x3aeb99bdbd592117U, 0x3d2f8be2bce3a321U, 0x3dbd7338bc572ca4U,
  0x3cbdad5dbca6a906U, 0x3cb7dc443d9b027aU, 0x3cbc556e3c433564U, 0xbb8601ee3d8c7b44U,
  0x3ce636243cfc9bd9U, 0xbd8fe55e3bce5497U, 0xbd115090bd4e2824U, 0x3d28aac63b7f8c22U,
  0x3d6f7be43d68eff8U, 0xbc4940413d9e1421U, 0x3d91226cbbadd69fU, 0xbcbdc5f73d121ac8U,
  0x3beb349d3b99193bU, 0xbb02c5c13ce42003U, 0x3c3a2d81bd85e728U, 0x3d818389bcf3d060U,
  0x38dc7a25bc89083aU, 0x3d9c76743d0356ddU, 0x3cc0eb4cbce489e9U, 0x3bc726adbc7b98ebU,
  0xbd5e34783bb092e6U, 0x3d84a79a3bc72796U, 0x3c8a40f8bb9cfcc2U, 0x3d0a6dfcbbc83ab1U,
  0xbc4631babd149231U, 0xbbb354d2bd00d266U, 0x3b3390943c8ef2efU, 0x3cabce30bc879531U,
  0x3cd9c7f8bc001a0cU, 0x3d036a26bc509846U, 0xbccf8cadbc70522eU, 0xbc388f97bd1c1252U,
  0xbd556c8a3d12e764U, 0x3b66dea63d2a810bU, 0x3c8befb63a1ef1fdU, 0x3a1e9809bc453d65U,
  0x3cb8a0383d22ce16U, 0xbcb29240bd340050U, 0x3d7ad1cf3c335a22U, 0x3d85d54b3d354500U,
  0xbc7f724c3c96481dU, 0x3a81aca43d39660fU, 0x3cb96dae3cd13695U, 0xbb79751d3bf402f2U,
  0x3c2251963d0e4092U, 0x3a9e1a24bd0d7385U, 0x3bc721b6be10780aU, 0xbad289efbb352344U,
  0x3cbc4efa3cfd31efU, 0xbd1002a5bccc3892U, 0xbc5d89cebc960dc6U, 0x3acd6ef0bd465a9eU,
  0x3b518930bb719f17U, 0x3daf461cbcec4d01U, 0x3c613968bd1f86c8U, 0x3c1f08debc193eebU,
  0x3cec50773ce529caU, 0xbbdb3bf6bcb08a7fU, 0x3d08748d3c01d94bU, 0x3cc4def93c9ef1e3U,
  0x3cfa8ad2baa7d88bU, 0xbbd577223d4174eeU, 0xbbc57e8abbb9dae3U, 0x3bb64ac4bd13a2afU,
  0xbd120c603d27ec65U, 0x3c0008d73c23149bU, 0x3c8e487cbcc53306U, 0x3c83925e3c54bbbbU,
  0xbdc2a268bd3f33a3U, 0xbd19f49b3ccfd0bdU, 0xbb54ff823d788f16U, 0x3cc9d7a6bcbc50b6U,
  0x3b51c5d83ab6a689U, 0xbd00739abcf08d99U, 0xbd16df173c89c6f3U, 0xbc1432f73d55165dU,
  0x3c88375abb84ce3eU, 0xbd2ddd04bc4a531eU, 0x3d3d88cdbcb90ef1U, 0x3cdd734ebc27f098U,
  0x3d0e39ddbc7f88acU, 0x3cff7351be0b9db4U, 0x3c6cafa13d003da2U, 0x3b0f8193bac06516U,
  0x3b12d852ba8a93baU, 0xbcc538323d4d681dU, 0xbc7da28c3d121953U, 0x3c36e0bc3d205cc6U,
  0x3c434ae43c6304eeU, 0xbc95ff553b518e1dU, 0x3c6662883d562b0bU, 0xbc21d4423cd41f92U,
  0xbcacb5ffbd04c1a4U, 0x3d75ec3abc6b7ba8U, 0xbc1ddbb43b1a75deU, 0xbc85a1863d47611fU,
  0xbc517e1ebc19fcfbU, 0x3d0503ba3cb85996U, 0xba33bb52bd460b09U, 0xbc110e2fbd160c9dU,
  0x3c8b70e33bdf9a85U, 0x3bb85f90bd27a2c3U, 0x3cfd91e9bc01c467U, 0x3bb99652bcb8e929U,
  0x3be61cf9bcbf52fcU, 0xbb7efc82bcc4bcb9U, 0x3a5789c03cf26e62U, 0x3bd8962bbd315ff7U,
  0x3b803ee4bbe33c5cU, 0xbc9edc16bd5b5d20U, 0x39845c07bc9004f3U, 0x3cc5287abb6b846fU,
  0x3cfc04c73bcd79b8U, 0x3d921d783d096871U, 0xbd04392d3cefded3U, 0x3c0a24603cf2e5bbU,
  0xbd10c1e3bc0d78b3U, 0x3df765dfbd857f7fU, 0x3c1421e83d38d465U, 0x3c2e1880bd334fefU,
  0xbc80a90a3c39ead3U, 0xbd2cfca03d28badfU, 0xbc57cdc03c944aa9U, 0xbb763dd13cdcd238U,
  0x3cfdc5973c9411c3U, 0x3c8fe794bcd3d681U, 0x3ca99d73bd189e57U, 0x3c8184b73ce680deU,
  0x3bbf59783b092926U, 0xbcc6eaf9bbf8a46fU, 0xbd569e15ba06335fU, 0xbcc2b53dbcce8cf0U,
  0x3ce276c33d05b135U, 0xbcbc7d5fbd17ab5bU, 0x3cfed7d33bd07f22U, 0xbcd66c333ca7af91U,
  0xbdb0f75bbcc046aeU, 0x3c8ff578393a51d3U, 0xbc941b21bbbd9077U, 0x3c5190193cd298b2U,
  0xbc45ac09bcd04e96U, 0xbcb70a35bc8f467bU, 0xbab6775c3c8fcdacU, 0xbc84a5043d5f775fU,
  0xbd02d35fbc84f927U, 0xbc5bcc2fbcd135f7U, 0xbcaa6a973ab5806aU, 0x3c8c68523ce5c37fU,
  0x3cc688553c9b40e7U, 0x3b93a5f33cc456b0U, 0x3cf227e03c542eebU, 0x3bd70c5e3c2b14ceU,
  0xbd79a33abbc2067cU, 0xbc8a90a5bce20b45U, 0x3bb07497bcbf5956U, 0xbcee0ba3bc30e708U,
  0x3b8cae8fbd13e8deU, 0x3c96d291bc6f0bbcU, 0x3c87b44ebca5d58cU, 0xbd0b323cbcd7e154U,
  0xbce4dacfbc584957U, 0xbb399fea3b407431U, 0xb957f8ac3b20365bU, 0x3cdaa4f9bc4f7a7fU,
  0x3bccbf493c19adb0U, 0xbcda4767bc7d597cU, 0x3cfd352cb9fb6aa3U, 0xbb5cc3933c1524edU,
  0xbcedffcf3d2f74baU, 0xbc29942fbc9840c6U, 0xbc10c2c8bd8930c0U, 0xbc5f0c033ce4adf9U,
  0x3cb30e56bcbc6dcaU, 0xbcab2ffb3a69b0f6U, 0x3d48e7623d8dcee0U, 0x3af4fbaa3cb8ae47U,
  0x3cb01b7cbc882cebU, 0x3c89b331bc3579f5U, 0x3da79e05bc30a132U, 0xbc29aa58bc8850c3U,
  0x3d41d64ebd249b09U, 0xbd1958c0bcdb69e8U, 0xbcae34b0bcad3353U, 0xbcb8c0733c1b88f1U,
  0xbc8afa353c711e01U, 0x3cf42c82bb118e66U, 0x3d1c6919bb45d315U, 0xbd949233bddde632U,
  0xbd04ff02bce7a1aeU, 0xbb3b0864bcdca1d1U, 0xbb873efd3cf522a2U, 0x3d65e2173d104c19U,
  0x3d8e7eb8bc3eed70U, 0xbe148efabc749c4cU, 0x3cf517e2ba898bcfU, 0x3d3d136cbd44a2d7U,
  0x3a9c7f3d3c5cfa75U, 0x3cec4816bca296dcU, 0x3d5e0500bc4a717cU, 0x3d2d65ee3ce6bba5U,
  0xbc10c4ea3bc09a23U, 0xbbf143b33aa72b8fU, 0x3ce37453bd051266U, 0xbb885f7ebc643474U,
  0xbd2b406bbcedf997U, 0x3d1549d33cf483d3U, 0x3d2668b23b4cab6fU, 0xbdf18a5abc2bdf36U,
  0xbcaf37e83beed824U, 0x3c8ebaec3c886aa5U, 0xbc3ef41e3cf2aa49U, 0x3c103b1bbc851f2fU,
  0xbbf63e463c644e1aU, 0x3d3b17f7bd2044e5U, 0x3c59ed3c3ba83d7cU, 0x3bc2aa4e3c271400U,
  0xbcf695673ceac8d4U, 0xbcf46a1a3d2814f0U, 0x3c6a9dd23c9e31f2U, 0x3c406e953cb1ce19U,
  0xbd2b6ff4bc15bbcaU, 0x3cf1ff353b6d8cbcU, 0xbce55896bcc93a1cU, 0x3d7738d93c8cf05bU,
  0x3c912c5fbc107129U, 0xbd519ee63cdd344eU, 0x3cc0b9513c91cea1U, 0xbcd420383d3fcad0U,
  0xbe314b91bc1d7cb4U, 0xbc336e26bcd0a32dU, 0xbd060347bcd6ff2cU, 0x3b81f249bd2495a5U,
  0xbd8e22d0bc56699cU, 0xbcfa7255bca30d25U, 0xbc3df388bc00f6f0U, 0xbc7c6c64bc07dbebU,
  0xba36594f3d5305a0U, 0xbc6b73cfbcdd78b6U, 0x3c5183ddbc439806U, 0x3a21c1b73d03c4e7U,
  0x3c5f2c20bcb09b3eU, 0xbc70b193bcc43751U, 0x3c76f32c3cff38dcU, 0xbd7cb6debd23c4a8U,
  0x3b01e728bb92d6bfU, 0x3c7432bf3d42d4eaU, 0xbc6a95933b9ba760U, 0xbc955fc23ce1f95bU,
  0x3d6d08803ca369edU, 0xbd27b2da3d018e36U, 0xbc2287e5bc939966U, 0x3c0a97febc7aaff3U,
  0x3d9816d1bd13b22cU, 0x3c2b7f03bc71c196U, 0xbcc385e13ce97837U, 0x3caa36f4bc04912dU,
  0x3d3914dc3c6f8432U, 0xbd1e994d3a932f47U, 0xbbcda07d3d43faa6U, 0x3a66e5853b869e68U,
  0x3c2f07bd3c7c1e43U, 0x3cad682dbc1839cbU, 0x3cc59b493d6d8510U, 0xbd74d7edbc5816d9U,
  0xbd278370bd1f6a47U, 0xbd03c566bd7d4df2U, 0xbcb0bfc93c932dd0U, 0x3ca912873d846d5dU,
  0xbcbaa0b13bc97185U, 0xbc88e00dbbdecdf9U, 0x3d34d6703d8f4b16U, 0x3b943c783d8abfc3U,
  0x3c48c235ba810fbdU, 0xbd08b9ec3d11ea6eU, 0x3d53afc6bc3b7e3aU, 0x3c4ada9cbcc08056U,
  0xbbd4ba4b3d0967e9U, 0xbce26ac1bcaf3b6eU, 0x3c76fe633c6d0b5fU, 0xbb40d3f83c0f5adeU,
  0x3c187e6d3d0f6edeU, 0x3d92ba613d87ea19U, 0x3da96420bd44a921U, 0x3c84ec5d3bb5134dU,
  0x3d6ec6cfbdd01b1dU, 0x3dac552a3d9ee7deU, 0x3c23a8423b83b3bbU, 0x3bf4d01ebdad41f6U,
  0x3da36a9ebd801f00U, 0x3d968a013d774febU, 0x3d0fc6a0bd06193eU, 0x3d4c7c35bccd44d8U,
  0x3ce935b5bd2ed4d8U, 0xbd51c2bcbc9e54c8U, 0xbd1e9a623d8f7b24U, 0xbd5159f33d884b42U,
  0x3d19b31abc0a4f8dU, 0xbc395e363dc873e5U, 0x3d5ac105bccf39b5U, 0x3dc482963bfadfe0U,
  0xbc8fac1c3daf9dffU, 0x3d09cf903d3263a7U, 0x3d8b6057be4a5a46U, 0x3d2f0fb2bc7b25a7U,
  0x3d8cd35a3d1a9752U, 0x3b9d2076bca41939U, 0x3c721856bc6fdddfU, 0xbd30dea83d8a8ac1U,
  0x3d368e93bc553fd9U, 0x3d91adaa3d919f3fU, 0xbd50fc15bb645bcdU, 0x3cfda369bc854115U,
  0x3d9a9b3abd23628eU, 0xbd89a1303d8a75ffU, 0xbc24251dbd8f3c16U, 0xbc7a68623db94ec2U,
  0x3d49e4f1bc8da5c1U, 0x3d82ea91bd1cb820U, 0x3d1818e13cbf2816U, 0x3ce607d7bd29110fU,
  0xbd5b6cdabd958352U, 0x3e0205123d5ecfe4U, 0x3d554f1dbd2e1530U, 0x3d21f5ec3d27ef8fU,
  0x3daeaa9f3d10b539U, 0x3dbc9d263d921290U, 0xbb9df9ebbd273e9aU, 0xbd5464d2bd03da8aU,
  0x3da98f9abdbeb3e0U, 0x3d298c00bd80aad6U, 0x3d994ad8bdb0d709U, 0x3c9bffb7bdb77e3cU,
  0xbd9b51a6bcfc904aU, 0x3d99bd903b471362U, 0xbd240aabbdba8e45U, 0x3d625abd3aecc514U,
  0xbc6ccf343d9e97bbU, 0x3d7e57d6be4f087dU, 0x3c5e1e063cf2dac8U, 0x3c1bad483d86fc5dU,
  0xbd2425163d9ee792U, 0xbdb107e43d0cbd1bU, 0x3aaf5c3fbd48d00dU, 0xbba5b19a3d1e9aefU,
  0x3d0dca9b3c1872cdU, 0xbc6e59b93d294cc3U, 0x3d271000bd96be73U, 0x3c64ea443c59aa5dU,
  0xbcee3e6c3ca00888U, 0xbd09cddebcb6f824U, 0xbbf39aafbc22fe40U, 0xbca4f7d33d5c24adU,
  0xbc3939753d0941e3U, 0x3db2e80a3d7ef876U, 0x3d07e2473d5e51bfU, 0xbb28b010bd2a13e2U,
  0xbd123444bcb5a929U, 0x3d453f2ebcbc1466U, 0x3d1eae34bd254145U, 0x3d0634b9bdad3beaU,
  0xbd21acc33d8955f1U, 0xbcbb90e9ba694610U, 0xbd21c577bc25847cU, 0xbc0c3188bd9ccb28U,
  0x3d74122d3cd0b9caU, 0x3dd9bf90bbd9a593U, 0x3d0804993d85c357U, 0x3d4056f8bd947f90U,
  0x3db81726bbf2af91U, 0x3d40fbf8bcef8ddaU, 0xbd1802b1bd4ca5f1U, 0x3c606d79bbbe4287U,
  0x3b832ec13cc78eeaU, 0x3df80d6abc2902e2U, 0xbcf21962bd753bffU, 0x3c1307d43dd7dbdeU,
  0xbd25cbc7bc982629U, 0xbc4dc87fbc96cd59U, 0x3d67edf93c775b3dU, 0xbd4213123bb87475U,
  0xbb95ba303d404fe8U, 0xbce432173caa0eebU, 0x3cb18b85bd346644U, 0xbd2e66afbd077034U,
  0x3c9d19d5bc3f00a5U, 0xbbdad7f13d14899bU, 0x3d4be6ea3d420bb9U, 0x3dabab60bcf497caU,
  0xbd7874cf3ce7a2e9U, 0x3c075bd4bd7cb3f7U, 0xbd69dcacbbf1a751U, 0x3d157084bd971c23U,
  0xbcda1dd3bcfdab8bU, 0xbd829ff5bd91290fU, 0x3d05bcb63c3591f0U, 0x3ca5ec973d4d8606U,
  0xbbadf5873bdd2c4aU, 0x3d76e513bca63aabU, 0xbcb8fa63bd131d92U, 0x3c4078f43d8ae512U,
  0xbc97c11c3c5fcb35U, 0xbce57047bd8a240dU, 0x3d74c2033b4a9c06U, 0xbd23f6f1bd74fea4U,
  0x3acca8283cb8926bU, 0xbbc1d8c33d94b753U, 0x3d35788cbd798b8fU, 0xbd1e492fbd3b6f4aU,
  0xbe1c4604bd79534eU, 0x3d3ef3563d9d1793U, 0x3cafee563da91d8aU, 0x3d4910e23bd6a0b5U,
  0xbd55ad913dabeedbU, 0xbc0733b83d257aa4U, 0x3d8bbb383d438456U, 0xbd3db90a3cc8efacU,
  0xbcbab3b43d272766U, 0xbda524093c8bab4fU, 0xbd11c81b3d82ca7cU, 0x3e45ce3bbd731eb9U,
  0x3d98c7eebc99cb48U, 0x3cad61613d7c072dU, 0xbb0ea7cebce283b9U, 0x3d86b944bd195e8dU,
  0x3cfacf67bde7a890U, 0x3ca2e524bd81ca49U, 0x3d0df8643dda6671U, 0x3d85514d3ca80cddU,
  0x3d8e717a3c8796e0U, 0x3c56bb723d3268e4U, 0x3a93780c3d1384d5U, 0x3d14c5b7bd197febU,
  0x3bd965333cbe98b9U, 0x3cfd733fbd11b9b5U, 0xbdf15d8f3d11ec10U, 0x3ccfb4bcbcd00ac5U,
  0x3d5268e7bce5259cU, 0xbca99ba03d8287deU, 0xbd457696bd536de3U, 0x3b8c7272bc699960U,
  0x3caa3d033d549168U, 0xbc2d54de3d98130dU, 0x3ca76944bda0f3cbU, 0xbd84702ebdc98d21U,
  0xbac158bfbd0d3556U, 0x3c027ea7bd4a689bU, 0xbd504d353d25f68bU, 0xbc3f42a23d6eace5U,
  0x3782948dbd526fd4U, 0xbdc2731ebd0feeaaU, 0x3da445393dba52a3U, 0x3c44f75ebdd7d1c5U,
  0x3d7c9f5d3d2f5427U, 0xbd815d283c0781fcU, 0x3c800c9cbcacfe98U, 0xbbe93ccd3d6a4dc6U,
  0xbcaeb761bcea63fdU, 0xbd4b37b53cd6be94U, 0xbd11e4a9bd3a74f9U, 0x3d72269cbd8c8b4cU,
  0xbb8654a1bd81236eU, 0x3d0cbbea3d68143bU, 0xbc545fb1bc788382U, 0xbe8cb88f3d36a542U,
  0xbd4f7efb3d9a75b3U, 0xbd37b753bc482010U, 0xbbc987eb3d9973faU, 0x3cedacdbbd6558dcU,
  0x3d874a1fbc83a516U, 0xbc5dff2ebbf2bc21U, 0x3d81920b3d5d68a1U, 0xb9858ba3bd8ff625U,
  0x3e078032bd02ef28U, 0x3cbd673d3ce9e41eU, 0x3d43b69cbd03157fU, 0x3d274a7d3d72a1a9U,
  0xbd5da7f53d25288dU, 0xbd0cb6a1bd4a10acU, 0xbc95a312bd870d6aU, 0x3da780f6bcc663d2U,
  0x3c6187c7bbebeda4U, 0xbd75c92d3c9dd6d6U, 0x3d5a91473dcd4f6dU, 0xbd20b6a03c3fec67U,
  0xbe56ce97bcdf9d6fU, 0x3ccef57a3dbd2929U, 0xba0749033db62aaaU, 0xbd426cd33d0db29bU,
  0x3d5160683da068d0U, 0xbddbd0373d92ae5bU, 0xbcba1516bcd683dfU, 0x3c67a97b3d5f9028U,
  0x3d593f59bd9ad7a9U, 0x3d1bd8413d80ca26U, 0x3d8bc97c3d134fc1U, 0xbc97e4693da0c839U,
  0xbd8574ef3d7bc66dU, 0x3c91e75f38ab4f20U, 0xbbcedcfe3d63e2f4U, 0x3d8129eabba724a6U,
  0x3c6f63533d0af438U, 0x3d478a053d6394eeU, 0x3d1dc43b3d817909U, 0xbc315ab83db2834aU,
  0x3d1946fa3b1462ffU, 0xbda7b973bd2df97bU, 0xbd02b7393d924207U, 0xbd594d953c64bd6cU,
  0xbcb637823ceb7748U, 0x3d99b617bd1d497aU, 0x3d9f60d3bd168310U, 0x3cca3d43bd8834cbU,
  0x3d5371b2bb78a581U, 0x3d5573b4bd66dd2fU, 0x3c83a5583dc77d17U, 0x3d07e6243d5f3127U,
  0x3d7d39b0bd86d74bU, 0x3d65be643d345653U, 0xbc5b0efe3d1e74d0U, 0x3d808b7fbc24671aU,
  0x3d880ebdbdb63b32U, 0xbd9b10ae3da29eccU, 0xbd580c9ebd4c643eU, 0x3cae9394bd803274U,
  0x3afdfec0bd47004cU, 0x3d8dfef93d55071aU, 0xbb7f6ef5bdc34c82U, 0xbda7b2a0bd41d3fcU,
  0x3cf2535dbcba60c7U, 0x3d80589abdacbefdU, 0x3d27b83abb8e660dU, 0x3d0c97b1bbd58d25U,
  0xbcd52b9c3c5fbb6eU, 0x3c7e92d13dc56d76U, 0x3cb25d423d45ce4fU, 0xbda3f6233cbe6479U,
  0x3c54207fba6e664fU, 0x3bd13d5a3c8e30f7U, 0x3d6c9176bc53ba1fU, 0xba3d0a303d29741aU,
  0xbc430539bbc2d9aaU, 0x3b946f82bbb854c5U, 0x3ccc4b033d3e23adU, 0x3d5c12063cc666b3U,
  0x3d0250df3da07ec9U, 0xbd413b29bb9d816cU, 0x3c988579bcacf0aaU, 0x3d4b04e8baa69365U,
  0xbc8d956d3c4a280eU, 0xbd323b64bc185114U, 0xb9cb4b033bf4efd6U, 0x3c5c3bc1bbaeb015U,
  0xbd814635bd340bd7U, 0x3ce6e2f1bc89f671U, 0x3d10f969bd002868U, 0x3cc30fa33caa3752U,
  0x3c3d5be0bc68eda6U, 0x3badffc33c831b4fU, 0xb7efe4a53ca23898U, 0xbd6244f7bd75fcd5U,
  0x3d4907983c2db386U, 0x3c75d72d3d8d6529U, 0x3cac2d453d32aac1U, 0x3d297caebd192706U,
  0x3cb441353c67e8b4U, 0xbd13e89e3d200363U, 0xbd3d76043b87014eU, 0x3b8c611abbce897eU,
  0x3c8eb8903d3d52bbU, 0x3d423a7c3cc9c25eU, 0x3c9cab793d06cbb0U, 0x3c05f63bbcfa7e4fU,
  0x3a163e15bcc870dbU, 0x3c45b43a3bd0d416U, 0x3b4dc5a8bc365b7bU, 0x3bafa5e63c936705U,
  0x3b2b266a3c6211feU, 0xbae50a96bbc7a02aU, 0x3ae4e524bd0193d1U, 0x3beccfbf3d7adb88U,
  0x3d04a647bcaca3e4U, 0x3d366c7fbd5dc3f4U, 0xbba7dbf43c4db21aU, 0x3b8611d93c8a4177U,
  0xbc957fefbac409e2U, 0x3c0af9bcbd10361eU, 0x3c24e7523d645d3dU, 0xbc69c415bd7dcc9fU,
  0xbce304813d2119cbU, 0xbd089984bc070242U, 0x3cdfa930bd003a1aU, 0x3c9302003d6fc227U,
  0xbca1cf6d3d982b04U, 0xbc78c2c5bc6a93a7U, 0xbbff8e253bf591c4U, 0xbc3d5151bc5ecc8fU,
  0x3b75d8ce3bb9419fU, 0xbce1dd7b3d5016d8U, 0xbc001387bd3d31a0U, 0x3c9816acbbd2e6deU,
  0x3caaf01a3c76de00U, 0x3ce3d69cbb8c20c4U, 0x3b8b7dc9bcaf097eU, 0x3c99fb7d3d12a930U,
  0x3b83072e3c20fd77U, 0xb8ddf906bb4539c6U, 0xbc141e343d61ea2fU, 0x3d521212bd6b7d46U,
  0xbce570ee3c49c0d5U, 0x3d949b6bbd73b835U, 0xbc66e7eebc16d884U, 0x3bb512093d084738U,
  0x3cd6b804bcab720cU, 0x3d495f5abd5aab1bU, 0x3c5707af3d7e86fcU, 0xbcc43e7bbd02cb5aU,
  0xbc3140303d078d58U, 0xbc48013fbc50e25fU, 0x3b743a5fbd508706U, 0x3c6eaad03d5ef21fU,
  0xbc5f25603c160115U, 0x3b8ac2a93b902cddU, 0x3d337ef43d247f04U, 0x3cac31c03b607dd4U,
  0xbcfd9c7cb9f37bdbU, 0xbcb0c09c3b8904eeU, 0x3ad9d58abd2890c0U, 0x3cdd50e6bb25292dU,
  0xbd2588663d4c788dU, 0x3c3b57a1bc93ddf7U, 0x3d61434e3d033488U, 0xbbc30bd2bacdfa1eU,
  0xbc562fd6bc38f335U, 0x3b347821395fa166U, 0xbacbc43bbd3d73e8U, 0x3cdf52f9bd47e0e7U,
  0x3cd13ceebc1567c8U, 0xbc6fdf2a3d6122b5U, 0xbbb026323c5e5888U, 0xbc634d3ebcac063aU,
  0xbd53ebfe3d340989U, 0xbc15a141bd6484ecU, 0xbc2762f63d706213U, 0x3d0436683d2c4f3aU,
  0xbb11df82bc251ec9U, 0x3d2c3a293d3e503eU, 0x3c4ef1853cf22f85U, 0x3c72a6c43b80c5a1U,
  0x3ca905ae3ac0f22dU, 0x3cf551a3bd3f3d6cU, 0x3d3e2048bc0d271aU, 0x3d68c80fbc3bd4c5U,
  0xbb8934853d32a33dU, 0x3d576de03c5a9aebU, 0x3c306ff93cc8892eU, 0xbcbc661a3a3ccb65U,
  0x3d86b2d03b31e0c4U, 0x3ca5d449bce9e424U, 0x3cea43f23bb4faaeU, 0x3d3bdf75bd264c59U,
  0x3b9982e53b93adedU, 0x3c88dc633ce3f28fU, 0x3c1b1bbc3cbb5eb2U, 0xbc5b89793d260c8cU,
  0xbd8114c83cef7ad0U, 0x3c940f2abbc938afU, 0x3c6e78273c9ab100U, 0xbacb6765bbd8e481U,
  0x3d8f1c7d3d17443dU, 0xbd1fbbb2bbe950c1U, 0x3bc57063bd378e95U, 0x3d636ae13c87e24eU,
  0x3cc6fe573b49fff6U, 0xbc0ce6223b9c2b06U, 0x3c1a0a6b3cd05a48U, 0xbe008278bcce2e66U,
  0xbd3896363c13d613U, 0x3cfa205bbc29f688U, 0x3b333e143d5515f6U, 0x3d3896b6bc1a4967U,
  0xbbcf22a3bd6ebf51U, 0x3c3c9db63d4b9df8U, 0x3c277837bcac3fc6U, 0x3d1e337fba9173ebU,
  0x3cc97a83ba0f479dU, 0x3d394a3abae5d3f5U, 0xbbe865753ce01b41U, 0x3d559f153c39cbd0U,
  0x3bc6fdca3d253a04U, 0xbc4d55a03a9f9e91U, 0xbd95d428bc594d47U, 0xbc8e9c473d06bbd3U,
  0x3caecd0b3c058f2bU, 0x3b9fb44ebbdf574bU, 0x3d52cbeb3d386f61U, 0x3c4c8971bc6033e8U,
  0x3c83acb5bca96830U, 0xbc0df98c3b0fae22U, 0x3d1bb6543b4b79e8U, 0xbdd99676bc1273e5U,
  0xb94d846f3c62cfb3U, 0xbc9d1862392448b4U, 0x3d572004bae34961U, 0xbbbc29233cc1eb7eU,
  0xbcca95a03b95dd0aU, 0xbd444e5fbd1847dbU, 0xbd22e2f1bc7f6709U, 0x3d0fbe863cdf7c0aU,
  0x3cebcb793bd1d4c3U, 0x3cab4fcc3d6b59d5U, 0x3c562ebd3c8d6b10U, 0x3c4c383e3c564ea9U,
  0xbc2d3670bd7dc9f5U, 0x3d2eb8653c546460U, 0x3cd7fc4a3c5c4e6aU, 0x3d33da3e3d88c987U,
  0x3b719c27bb2c9ff9U, 0x392433a3bd0844fbU, 0xbbb685b8bc06ecfbU, 0x3d449a18bd398008U,
  0x3c994c523d3c5789U, 0x3cbfc55d3d971dbdU, 0x3c4af2383c9a153eU, 0xbba30e463cd47ad7U,
  0x3cb5570fbd05e49aU, 0xbbc1c4723c8e678fU, 0x3d506a0cbc06876eU, 0x3d0fc0ce3c0247a0U,
  0x3c6ac0133d6fa8fdU, 0xbcd831f83d023181U, 0x3cf963d0bcdd495fU, 0xbc425534bd04e6daU,
  0x3c04404fb8b75009U, 0x3cc88761bc25f254U, 0xbc06da213da29205U, 0x3b6920cbb9df7d6dU,
  0x3c8891233ba4310aU, 0x3d1ceb543cbf24b5U, 0x3cb0672dbb953d80U, 0xbd4676c93bfa662bU,
  0x3c9cdbdf3b64f10aU, 0x3d4815203beb45f1U, 0x3bac442dbcc09039U, 0x3d2500ed3a988729U,
  0xbd5ba3d2bcad92f1U, 0xbd976a5dbb70d890U, 0xbc2035c7bc606af4U, 0x3b8708643d1ac5c4U,
  0xbb85d8033d37e0a1U, 0xbc0b159bbbb9bd57U, 0x3ca6aec3bc17f700U, 0x3d2a62f6bb1add53U,
  0x3c198db7bb42e293U, 0x3d2c38173c820e6bU, 0x3cfeef733c1b64deU, 0xbc8b6f55bc116a8bU,
  0x3d2f355fbb1cfe13U, 0xbb74bca63d108e4fU, 0xbd29b604bd4ff6beU, 0x3d2f19043d6a636cU,
  0x3cf9f6963c940663U, 0xbd57cc8a3d1a1cffU, 0x3c2162c93d6aeef1U, 0x3d26e9d5bb08d984U,
  0xbd1457f3bd7de8e5U, 0xbb04a5123cf8471eU, 0xbc61b7d5babb4d4fU, 0x3d0e5cac3c9ef77cU,
  0xbbbf31353d30d4e6U, 0x3c7e52fa3ccbb1afU, 0x3c4bce01bb028558U, 0xbae6d7c53d594d28U,
  0x3d24767e3d2d1b76U, 0x3d7a503f3cb49d12U, 0xbcb3f400bd18a153U, 0x3c1e09dc3c02109dU,
  0x3d1094fabcb6c488U, 0x3cb8911fbb40624bU, 0x3ce357df3ca6412fU, 0xbc49276e3d4955fbU,
  0x3b95e742bd130f74U, 0x3c424cf73c678888U, 0x3d2c6096bd8e44d9U, 0x3d1320a5bcef759bU,
  0x3d67629f3ca58f4aU, 0x3ca3d3013d0dc687U, 0xbd05af403b4291c0U, 0x3c74b1873ba04798U,
  0x3ce71c573c032697U, 0x3c087bf23d7d18a2U, 0xbca2f3833c93d3b9U, 0x3ccb8b26bd5ecf31U,
  0xbcd049e83a80564fU, 0xbc17f2073c2a194cU, 0xbc1d60563c3919ccU, 0x3d03f7a23d82b2c8U,
  0x3cbdd746bd4de57aU, 0xbce831923d5756cdU, 0x3cfc718a3c8be5c8U, 0x3cf734b7bcde7a3dU,
  0xbd2fe3cf3c21f11dU, 0x3d655bd2bcae74c7U, 0x3d0599063badb09aU, 0x3c39a3493d2ac1beU,
  0x3bcbe60cbcc63c22U, 0x3bdbc90bbce028b4U, 0xbd33ed223d5537edU, 0xbb215a7bbc3a6423U,
  0x3d34a1453ca38a6fU, 0x3d4319d13d04c34bU, 0xbb7854f03d25bc11U, 0xbc486485bcb8e90eU,
  0x3d0082cabcc2c2cdU, 0x3d2addf73d29838eU, 0x3c9f39233d22e5a6U, 0xbc52116ebd4a92b7U,
  0x3d225dcabc1a3e86U, 0x3ba0bd963d232dbfU, 0x3d6b87a03d4ebc67U, 0x3ce99e05bcc20c0fU,
  0x3c42ab933d19e1f2U, 0xbd39a856bcbdcea5U, 0x3cc7a6e8bc382665U, 0x3d12d5003cdfd692U,
  0x3d8530fc3c5d9ff7U, 0x3cd35e153ca06769U, 0xbba4192dbc5cf9f6U, 0xbc1e13a73c83bb88U,
  0x3d3f3e78bc3186daU, 0x3c6ea7dfbc14e150U, 0x3cfc97973d3d5158U, 0x3cd54c8abc3543cdU,
  0x3ca2b758bd6f3498U, 0xbd2822b73b55985fU, 0x39a417c63d422e76U, 0x3d8851f93b47deb2U,
  0x3d08e2ea3ccd1590U, 0x3d431f0c3ca6b4bfU, 0xbc7bb1143c636ab7U, 0x3c6ec2823d156077U,
  0xba736e9fbd21d429U, 0xbc8de01ebcdb5decU, 0xbc247942bd067280U, 0x3cdf3709bcde6cb9U,
  0x3cc598bbbd422159U, 0xbabeed453ce1129eU, 0x3c2978f7bc8fb764U, 0xbc8c6bc2bc251c22U,
  0x3c7cc276bd04f29cU, 0x3d70fae43d9a3040U, 0x3d3d09883b0041c5U, 0xbae84f74bc7bceb0U,
  0x3bd8f28b3b6169e0U, 0xbad0de323b6f305dU, 0x3d0e13d4bce31d3dU, 0xbba710103c81fff5U,
  0x3c2d5f50bceb953cU, 0xbc0221023cfd7fa7U, 0x3c8b45363d917bf7U, 0xbd1667293d0d5a07U,
  0xbd0449733ce2611fU, 0xbca0897abcc6e3c0U, 0xbca7d8813c8dc66bU, 0xbba0b721bc9d2dd5U,
  0x3b0499a5bd126171U, 0x3d11f9fabceb5517U, 0x3c11d56e3d1b7650U, 0xbcf83f8d3cb00f50U,
  0xbd1803cb3caf52a9U, 0xbc06c3663dbf0021U, 0xbe0cfcef3d15a0c9U, 0xba7e9501bd2ccd06U,
  0xb9b83d4f3d668a23U, 0x3cbdff243cf53fffU, 0x3b6c01433c52bcb0U, 0x3d637074bd34f0f4U,
  0x3d3fd0333d34887dU, 0x3d17afd23c72373bU, 0xbcd22ba63ac8105aU, 0x3d2d59a93c265c3cU,
  0x374e17b73d3720a6U, 0x3c25069b3d5c126eU, 0x3d48f7c33d1510a4U, 0x3cf472ca3d25f57cU,
  0x3d3b9b55bcec08fdU, 0xbe21f327bd1bb5e7U, 0x3d3359d5bd1220b8U, 0x3d3ef90ebd2fb84eU,
  0x3cdc53043c35af89U, 0xbca232cc3b56cf6dU, 0x3cdc3db03d135542U, 0xba1315623c3f5c05U,
  0xbcf53b9f3c93c35dU, 0xbd9394f73d5a1174U, 0x3d73f30d3c01af25U, 0x3c3cbe423cf09426U,
  0x3cba1dc03d42b0b4U, 0x3d2b9eef3d25630eU, 0x3c1acedd3d08d8bbU, 0x3d512f64bc46eacbU,
  0xbd474e043d4876e0U, 0x3cfbd3083c82f2dbU, 0x3d5c0bc73d509bb4U, 0x3d625c1dbaffc7fbU,
  0x3d875fc5ba37a355U, 0x3d0729f73b8dd545U, 0x3d5477f23cabe2b3U, 0x3c8b4c5f3d414b43U,
  0x3cd8fef5bb7f5b30U, 0x3d4d365ebcd91ae8U, 0xbd696965bd166e6eU, 0xbd1a5af6bc81de61U,
  0x3cc297123ce3b05aU, 0x3cfef107bd435733U, 0xbcd0a1da3d83ed48U, 0x3d41b6edbd376162U,
  0xbbb525433c9f4d54U, 0x3cfa4d8abd58bbc4U, 0x3d1b6341bc592501U, 0x3cd93b813d3a9e8fU,
  0x3d3240b8baca816aU, 0xbca9405ebc31530aU, 0x3d4e5bb43c838b73U, 0xbcc78c7f3d115bf1U,
  0x3c21ab7d3ca9acf0U, 0x3d063504bc2ef2eeU, 0xbc578115bcdaa65dU, 0x3c569832bcb7f364U,
  0x3d3e2d8cbb127752U, 0xbd17ae1a3d278a92U, 0x3d0f9fd3bc8525c0U, 0xbd9bd760bd1d5bc7U,
  0x3d07dffd3d1c9cb6U, 0xbb6f6e7abc95aac3U, 0x3d05e35e3cfc560dU, 0xbbb1ada53d635f19U,
  0x3d03d8e9bbf4892fU, 0xbb322285bc8831e4U, 0xbb52241bbd2d087cU, 0xbba875e7bcf060cfU,
  0x3d674d98bc907f32U, 0xbd208cd43d08542eU, 0x3cc3323bba732baeU, 0x3d4df66b3d1956bcU,
  0x3cb50cd0bca6f6cdU, 0x3d51e9f93cb27739U, 0xbb7960663c46862fU, 0x3cd10c87bd3f9a47U,
  0x3cd60ab93abd9d50U, 0xbb5d30213d15c6f1U, 0x3d5e7a573d0ccea4U, 0x3bde9aea3d3ffaaeU,
  0x3d4d44473cf129d7U, 0x3d0876cfbcdd0b5bU, 0xbcd3464c3cc6da1cU, 0x3b9a0d3d3d801ca7U,
  0xbc2850eb3c73ba1cU, 0x3ce520913abd79dbU, 0x3c1eb0a23d1b892aU, 0x3cd000813d0fba3eU,
  0x3d6498d1bb25f063U, 0x3cc3e7623c871aabU, 0x3c8a76e8bbe9b8bdU, 0x3d876e2f3d4ad854U,
  0xbd11837bbc3d0fdcU, 0xbcdcebb13d1af713U, 0xbc83d33cbcc74d85U, 0x3cf060a9bc31421eU,
  0x3d3cf32f3d5ac362U, 0xbcee4fdabbb93965U, 0xbd00ce2fbcb46ea3U, 0xbb24f478bcdd95f9U,
  0x3d8af9eb3c88939eU, 0x3cf9ef7b3c42ed41U, 0x3c7acd5d3d5f5836U, 0x3d8a22403d1d9709U,
  0x3d6e635d3cd24a32U, 0xbd497a3ebcc043ccU, 0x3b5a61e5bc7f9ffcU, 0x3ceb598abd131228U,
  0x3c6bd0dc3cc40156U, 0x3b8d3d853d70fee0U, 0xbd21cb313d06cac0U, 0xbcbf9f15bcd6fbaaU,
  0x3cecd9383c582df6U, 0xbd0aa568bd21a2deU, 0xbd40529ebcb5d4bfU, 0xbc9a06a53d652622U,
  0xbcec80253d5332e1U, 0x3d082dad3d1aa663U, 0x3a28855b3d0758dbU, 0xbe13d64bbb4e9a9bU,
  0xbbba34913cde0e64U, 0x3cf8a030bbcc465cU, 0x3d3d79e6bce6be55U, 0x3cab49f23d412edeU,
  0x3db155cc3c890d1fU, 0x3c97101d3cf6cb49U, 0xbc9d9cdf3d854641U, 0x3c5ce2b4bd08566cU,
  0x3cec0dba3d1d9ca2U, 0xbccb91183ce0143bU, 0x3d3ba3e63d06fa34U, 0xbc716578bce9d9d6U,
  0x3ca2700ebc6d7fbfU, 0x3b81ca10bc335342U, 0xbcd63115bc822673U, 0xbd0f1e65bb6ce3f1U,
  0x3b25cbe53c662461U, 0x3d704a37bbae89b1U, 0xbd4cc2963a4bc7d3U, 0x3d09d38dba14946bU,
  0xbcc6336fbcc858f5U, 0xbc9718f83bf03ba5U, 0xbd0cea573cf7a2c0U, 0xbcc431cdbc223558U,
  0xbd5d70773ce99b1aU, 0x3d82096f3cda6932U, 0x3d2799db3d3afc97U, 0xba7eb325bbaf960eU,
  0xbdb34a12bc98e6c8U, 0xbd2ea9033d64feb5U, 0x3c7fac843d1374e1U, 0xbd1706a5bd341ca6U,
  0x3ceb1927bc3cd822U, 0xbcc5ebfabd1c555dU, 0xbbd3d7c03d0afffeU, 0x3c1e4cf63cff2494U,
  0x3d84540a3ce35b69U, 0x3ba923663bfd52dbU, 0xbcd04118bde38b60U, 0xbd304bdd3cb94c8bU,
  0x3d4c308fbd4c73f4U, 0x3c3b84c53bad0745U, 0x3d84108c3d0e96ceU, 0x3d10e18cbc915357U,
  0x3c356b483c08a7adU, 0x3d0360a23d538570U, 0x3d0432963c91ad55U, 0x3cf21363bc0987b4U,
  0xbc9d44553d08cb03U, 0xbd135c4a3cb2edd2U, 0x3cc75acfbcefea99U, 0x3cc6c1dd3d3e3fadU,
  0xbc1dbe44bd0f9a03U, 0x3c1e1042bcac6d62U, 0xbb9bb0dc3d417e80U, 0x3d404176bcfb12b1U,
  0x3c717265bbe1bd17U, 0x3d034f52bd0d9ccfU, 0xbce28bc93cd67cc7U, 0x3c901e413ce06225U,
  0xba80e2b23d43bb40U, 0x3cef220fbb938631U, 0xbd02bdc2bcc9659eU, 0x3d9ddb2bbcea07caU,
  0x3dafe5e0bbf07573U, 0x3cb6b74fbbe88284U, 0x3d8269573d0e2df3U, 0xbd77a9c03c868667U,
  0x3d7abb31bc150c41U, 0xbd5ff772bd08c1dbU, 0x3cf41df3bcb76336U, 0x3d8e7ca23d49e97cU,
  0xbdb37e8fbd3ae446U, 0x3bd2b84bbc61296fU, 0x3d6f57e2bc0f12b4U, 0x3db70b7abce29e99U,
  0x3d014b643d4c03d3U, 0xba3255cb3c3a1e04U, 0x3d412f28bdc58089U, 0x3d3b2cfebd2c4fb4U,
  0x3d6f44433b56abc7U, 0x3becc786bd44c427U, 0x3d8f63893cbbdc93U, 0xbce6cdf33d95dfa4U,
  0xbd6badff3baa8895U, 0x3d48d7d63d1816f8U, 0xbbb881193d6c8256U, 0x3d55efbcbd1c6cfdU,
  0x393a136f3bc2fe22U, 0xbc8b85c0bbb40cc1U, 0x399db1d63c86ae26U, 0xbbfcda813cfdd402U,
  0x3d2f8c083d0cd31fU, 0x3d023fa53c54ae03U, 0xbc52dba53d1a5681U, 0xbc9e6094bb96594aU,
  0x3c1e8b453d45c86aU, 0xbcc0cb013d168fadU, 0x3d562681bb0834a4U, 0xbd4b912e3d146ad8U,
  0x3cd640743d8a89d2U, 0x3d70a310bd71e0e8U, 0x3d2e1f86bcfeb61dU, 0x3cfd87d53c3d1446U,
  0x3d02941e3d80104aU, 0x3ce571a33d0a7c6dU, 0x379006d33d542fa4U, 0x3d0203f03d3551eeU,
  0xbca4a408bd6cab21U, 0x3dc7f51b3d283afeU, 0x3c0a2565bb17c350U, 0x3cb1c112bd6924f7U,
  0x3d6186cf3d23ccadU, 0xbd9e83db3c95df34U, 0xbd1dc694bd138eefU, 0xbc9522993cb083b6U,
  0x3ceaa9f1bc9cdb30U, 0x3d58a8283d2a131dU, 0x3ca66fc7bda57a12U, 0x3b88d4bb3d0af55cU,
  0x3d2ab376bb96ec20U, 0x3c8031693d8b934aU, 0x3ce5e8f83d95b11eU, 0x3c5762d53b5edcfbU,
  0xbd82f07ebb242b34U, 0x3a9aa0a73dbc773dU, 0x3cedcb14bcf6ffc8U, 0x3d95e2863daeec4aU,
  0x3bf0f1ebbc04964cU, 0x3d568a7bbd36ab92U, 0xbc95cee5bcc9bf58U, 0x3daee1cebc848d53U,
  0x3c785da8bd6ccfaaU, 0x3da386133d768806U, 0x3da77e353d291b6dU, 0xbca8c6e2bcc6d8bbU,
  0xbb6b0ec13d48f540U, 0x3d2aa7c33d3b0559U, 0x3cb3874fbc30f798U, 0x3cd4b0433ce8c071U,
  0x3b7db3453cc5327aU, 0x3bb097753c986b5eU, 0xbb96263cbcffac8cU, 0xbbf950aa3c33b4ecU,
  0xbba24d463ce78643U, 0xbcc889f13bd7a17bU, 0x3d0fdcc13ccc4810U, 0x3d85a2fcbd50674aU,
  0xbc9e1291bce1a385U, 0x3d9862173d20d3a0U, 0x3d141c3bbcfe0258U, 0xbc9b53073db42bcaU,
  0x39d6b0603cb91440U, 0xbc1155073cc68667U, 0xbcbd47dcbc9b1fc7U, 0xbc37b2013c2627c6U,
  0x3d99bef6bb0bdc8aU, 0x3d3c8b02bd11fb8fU, 0xbd105e153c9fa148U, 0xbd8a5d383d0dde0eU,
  0xbd3224643d57c36eU, 0xbd2420773cda8ce4U, 0x3bdbce97bcd848a0U, 0xbd318aa43d6fa557U,
  0x3d3258ccbab555ffU, 0x3c8e30553d1ea8f2U, 0x3d82a5843d1a6ed0U, 0xbd02b6f13d3ba877U,
  0x3d7b741c3d163863U, 0x3d00f2c8bd08bb35U, 0x3d24c2a33da61179U, 0xbc86ca763ce849a0U,
  0xbd10d4093a198770U, 0xbc1b38d93d5a6510U, 0x3d578cc93ce57c23U, 0xbcc87fc1bc92fe49U,
  0x3c3ec9e03cf227aaU, 0x3c98f1f6bcbacaa2U, 0x39f662d73bda0d46U, 0xbd8724fcbcd001f2U,
  0x3c2693843d1b038dU, 0x3c9053873d66cecfU, 0xbcd08a343d0a1569U, 0x3d1b7e113d0e68bcU,
  0xbdb0c9433d9fae9bU, 0xbd3915ee3d942191U, 0xbc0af31dbc50faeaU, 0xbd30c228bbece3f2U,
  0xbce657ce3d216a1bU, 0x3caa1ce73c74d2f6U, 0xbcade11cbc6c0e6aU, 0xbd686f1abcabf0a0U,
  0xbd722b40bd0c544cU, 0xbbbce9c5bb3b33f7U, 0x3c84a33f3d151425U, 0x3dc7f149bd8588f2U,
  0xbd39285a3d2d131aU, 0xbd17e9433d17dd6bU, 0x3cf8ba48bcec0a15U, 0xbb385007bd146b4eU,
  0xbc9bc2f23cb1ad40U, 0x3d0380d33cd1712aU, 0xbd4932f43cdc89f9U, 0x3c97b1abbcaeb06bU,
  0x3bd55410bb8a63eeU, 0xbd22a5593cb0a6e9U, 0xbbc542503d4a9dadU, 0x3dadf51a3d891509U,
  0xbc5adf4e3ca2f196U, 0xbd0c9a8f3c9fffdfU, 0x3d49d9ea3d057c45U, 0xbd22a95a3d79082aU,
  0x3d2439f03bc6a331U, 0x3b77b0d63be775ddU, 0xbc9312483c962057U, 0x3bc1d2483d123e00U,
  0xbc1139c9bd640a18U, 0x3d6491613c3b5a24U, 0x3c4e8abd3d4cf72dU, 0xbd9d66c73d820e37U,
  0x3c252701bcc24c71U, 0xbd2d58583d127241U, 0x3c61fc2fbd092fb4U, 0x3bda888dbd02f76cU,
  0x3ccd6622bd1a15d5U, 0xbbe5faf4bcdb78ccU, 0xbce32a13bd807a40U, 0x3cecc1db3c238fc5U,
  0x3dac6e61bc613dd0U, 0x3ce23cfd3a850d7aU, 0xbba12132bba944f9U, 0xbced9fd7bbe4d60bU,
  0x3d0ebbf0bd1ced71U, 0xbd15a82bbd3fab3cU, 0xbcc9749c3c9f43c0U, 0x3c7ad6f13c2e4085U,
  0x3c9a686b3d4cd914U, 0xbcc49a603aad8ccaU, 0x3d114cf43ca1f792U, 0x3d2a892e3dde93eeU,
  0xbcd68dea3dc25e41U, 0xbccf882cbc81c4b5U, 0xbcd1ab75bc8117ddU, 0xbca87add3d275922U,
  0x3dc36d38bb256f9cU, 0xbd237be33d80af6cU, 0xbd0d49c33d3a14c1U, 0xbc96e81e3d1aa709U,
  0xbcb21b99bd0e3e75U, 0x3cc006f63d804358U, 0x3ce270663d4e4a89U, 0x3d04656ebd01b162U,
  0xbc76e52e3cdf32c5U, 0x3d2bb88f3d2c9650U, 0xbc3d00c63d0fd0e8U, 0xbd6f16293d2f65d8U,
  0xbb8a972f3d77924bU, 0x3c0f4bf43d424741U, 0x3baa061b3d91035bU, 0xbc39d46f3c7b504bU,
  0x3c30bcc63d9f4f06U, 0x3d86b80a3cda3638U, 0x3db074913d8a3d2cU, 0x3d3302723cad7656U,
  0xbc9db6e3bc80e071U, 0x3ce263c43cdf9773U, 0xbc1c11c1bc28a6a7U, 0xbcfb924d3d176cf3U,
  0x3cd3be1a3d9be215U, 0x3ce67be0bd803da1U, 0xbcaddccabac623beU, 0xbcc1aa48bc99499cU,
  0xbd615c433d5bc35dU, 0x3cbb37bf3d7c14dbU, 0x3c97ad46bb870e0fU, 0x3cf0eccc3d7be681U,
  0x3d17f4133c614bf1U, 0x3cb3d5083d73c711U, 0xbd19272b3c255613U, 0x3c8e48fe3cf0b041U,
  0x3ce19ca93d20d5bfU, 0xbc9c02003cf9c294U, 0x3d519a2bbd6f89a0U, 0xbd6fcdd4bcd36ea4U,
  0x3dd90355bc2653abU, 0xbc6a512cbcb5e167U, 0xbc41e04c3be72ef3U, 0x3d143122bd677f5cU,
  0x3cf2c7743cf6a6bfU, 0x3d47d18c3c4c5768U, 0x3b9361d33d492562U, 0x3cffccbfbd16f1caU,
  0x3d0c9a9b3d4cffbaU, 0xbc6d8a4f3c194172U, 0xbd867199be14aceeU, 0x3d90d369ba27c823U,
  0x3b2d0d9f3b624947U, 0xbc6e56fbbb920f4bU, 0xbc462f393d0037ccU, 0xbd1c4fcf3cf0a455U,
  0xbc1bbaec3da74167U, 0x3d3511bd3ca38b2fU, 0xbc7d97323d1fb858U, 0x3b4a09913dc5401fU,
  0xbd8989cfbd876d8fU, 0x3b05f4223d29a8fbU, 0x3db2ff353d6ada9fU, 0xbb2141b53ca6f427U,
  0xbd1bb1e6bbeceac9U, 0xbd0ae6693d2613bfU, 0xbd7a6ba3bcfd56e5U, 0x3db6d2a13d6ff253U,
  0x3db66e34bd516dacU, 0xbc06ac40bd6ea4cbU, 0x3d86f6223cb1bfd2U, 0x3d2596ecbc35e64aU,
  0xbd80cd9ebc1656afU, 0x3d1cb4533d95a503U, 0xbc1d6f463c18f00cU, 0x3d07054e3dce633dU,
  0x3a83f20c3d964547U, 0xbbe8b47e3d160fb9U, 0x3d1d3f653ca03637U, 0x3d1b0ef13d3e55ebU,
  0x3cec068d3bfc855fU, 0xbca2b198bdc873abU, 0xbd8c08613d57afaeU, 0x3d9f5b453d80f2eeU,
  0xbb9a7067bbebc2bbU, 0xbcdc84803cf33424U, 0xbc3da8443d4f6669U, 0xbd9bf95dbd7d4e5aU,
  0xbc0ad9bebb2ba264U, 0x38d721d23d4d4b94U, 0x3d0c477f3dfbaaf5U, 0x3d10b788bd027403U,
  0xbc42410f3d4b6222U, 0xbd5e00443cd1e163U, 0x3cb8cc483c4c5b51U, 0x3d08c00abd77a04fU,
  0x3c82a0073cee35aeU, 0x3cb89f8abccaab5eU, 0xbd20559ebd89ac92U, 0xbacf3495bbb03038U,
  0xba76eafe3d081dd5U, 0x3b07fef53d186cb2U, 0x3d5bb4d13c917792U, 0xbc295dd03d20a863U,
  0x3d4d408a3aa37dd6U, 0x3d92876abd29c146U, 0x3d4e97583ad2bc12U, 0x3d6232953ddb1dc4U,
  0x3cce244ebd2a0c71U, 0x3ce316dc3dd68406U, 0xbcdc3dbcbd224915U, 0xbcd6800d3b7b7e4aU,
  0xbc59452c3da70d62U, 0x3d4c87f1bd1d2127U, 0xbbe5a1923cd0502dU, 0xb7f103463d0bbd81U,
  0xbcd7916b3d00361aU, 0xbc317f81bd19c5c4U, 0xbd3463233cc91961U, 0xbca93b22bbaa05b3U,
  0xbda5dc953d294203U, 0x3d337f063d374955U, 0xbb34762bbdb10d65U, 0x3c33b0fcbd6f6567U,
  0x3cacbe1a3d8186f5U, 0xbd2c47ea3e06d353U, 0x3af6a9593d57ccc0U, 0xbc94077e3bdcd900U,
  0x3c89d4bfbc86d508U, 0xbdb1a0eebc73ad9eU, 0xbd09e3efbc6a03c6U, 0xbca11be1bc2866e0U,
  0x3d3e7bf5bc54691fU, 0x3d84c412bd758412U, 0x3d1d6b633d9712eaU, 0xbbfc3eef3cf03d13U,
  0x3ce162f83ccc13bbU, 0xbd28cc05bc2d07b8U, 0x3d88f3a83d82344fU, 0x3d6d6e5cbc39cf10U,
  0xbcf9c9de3b9b3f90U, 0x3d208c96bd374924U, 0xbcd0f4e53d03d5ddU, 0xbd5472003d8fe8edU,
  0x3a8baceb3cc77548U, 0x3db1e67f3cd7b572U, 0x3c113650bcb37daeU, 0x3d221eb1bb8573c5U,
  0x3d16aa2f3d417649U, 0x3c89c20bbd29e41eU, 0x3c8f01cfbb955b52U, 0xbd2df4a1bd78ea58U,
  0x3bbe18ae3cfe5841U, 0x3bd3b27cbc701280U, 0x3d16643abce43578U, 0x3d4739a4bd61be79U,
  0xbd3904233d5975f3U, 0x3c7f882ebd169012U, 0xbccf8cd9b8112b8aU, 0x3d5924e8bd81c0e7U,
  0x3c48621cbd667e05U, 0xbe07fcd1bd5c464bU, 0xbcf22157bd197f11U, 0xbcad8dcabd63b0b0U,
  0xbd3615ad3c1eda4eU, 0x3da9e50a3c1bb951U, 0x3d18bdaebc8a4a73U, 0x3da09cf2bda011d4U,
  0x3d84153cbd0aaed8U, 0x3c2adfa53c1491feU, 0xbd0520a43d8f264aU, 0x3d69b87bbc1d3d12U,
  0xbd680cc9bd6c2d12U, 0xbc972f673c3dac93U, 0xbc98090ebd770435U, 0x3d397052bc877a61U,
  0x3c3b33cb3bcc1c92U, 0xbd2ed3963d8ed8b0U, 0xbd1aed013d5dca50U, 0x3d83975b3d86fae9U,
  0x3c895fc23c5862b5U, 0x3d5ca90fbd179982U, 0x3d1e477ebc8df29eU, 0xbb4b0ca8bc65db84U,
  0xbd5080cebd542353U, 0x3be50e2bbcc05800U, 0x3bf37fee3c834ae3U, 0x3d4a42f93c98fb96U,
  0x3d9029d13c96ba94U, 0x3cf518ea3c4f2946U, 0x3d993c9c3d2bf4cbU, 0x3d410927bd68660dU,
  0x3d3c7c4e3d4b9fc7U, 0xbb9c1cf33c48164dU, 0x3c3c55883c98a860U, 0x3d210ed2bc9529c1U,
  0xbe0d73cc3d1e841aU, 0x3d46234fbd6fdb29U, 0x3d2c3834bd940f6dU, 0xbd1306be3cbd0a04U,
  0xbc3fc942bca8a700U, 0x3c8d31163d83634fU, 0x3ce4db19bc193c3aU, 0x3d5e529fbd01c5f2U,
  0x3cca5b6cbbbbe0dbU, 0x3d6e1a95bd71934aU, 0xbccfae92bd7eba9bU, 0xbe5089eabd7f003fU,
  0x3d593aa63d158511U, 0x3d16f976bc2cf78dU, 0x3d6ab0a43c761d6dU, 0xbc08c7ccbd84d385U,
  0x3cc5ff2ebd0800afU, 0x3b9fa1f4bd108c24U, 0xbb6840c43d480f6dU, 0xbd12534d3d53b645U,
  0x3d73f4a13d6cf8d2U, 0xbd305b643d812ec5U, 0x3d0702d8bce09f06U, 0xbd0d173dbbf606bdU,
  0xbc7b9c50bd6e00cfU, 0x3bcf77e0bc9cd66dU, 0xbd12bab93d3cf550U, 0x3c4973813d56bfd4U,
  0xbc82524a3d2caa23U, 0x3d97ec3c3ce5dc28U, 0xbc2d2d42bb918477U, 0x3dacbfe53cff43c8U,
  0xbce054a83c6b9379U, 0x3d33ca1c3bb632d2U, 0xbc9ae00c3cdf5f52U, 0xbd89b970bbb7d727U,
  0x3c3c1534bcbb8395U, 0x3c23149a3d37bee6U, 0xbcccd7933d11da9bU, 0xbc33944b3b94df2aU,
  0x3d607069bbfbe1b0U, 0x3e25a4e53cecb07bU, 0xbbd125743d7d0882U, 0xbcb5e91e3d703003U,
  0xbc521e4a3c35efdbU, 0x3d20e90dbd6defefU, 0x3d64867fbc8a9d00U, 0x3d36068e3d4f8789U,
  0xbbc5724ebd7222a5U, 0xbd18fdbf3d6caaafU, 0x3b183375bd41bc8aU, 0x3d0781a93d80ad69U,
  0xbc4e4879bc3cc7aeU, 0x3c7fb6cf3be1caf6U, 0x3ce12666bca907f5U, 0x3e25a6c03d09a836U,
  0x3bb20c1cbd8104c2U, 0xbd5e5b94bd8a52c1U, 0x3c7ab5633b4262fcU, 0x3d5028c73c92172aU,
  0x3da4bb00bd2a0e96U, 0x3cf3fc74bc277c7aU, 0xbd5a29d6bd00dffbU, 0x3c7826efbd81b1a6U,
  0xbd05709d3bfcb6eaU, 0xbd1285733c1c5c64U, 0x3d1d5c14bd3ee74bU, 0xbd1e5107bccf294fU,
  0xbcb013483c80849cU, 0xbcb9b1803d5905daU, 0xbc8758da3ce99722U, 0xbd9e4bdd3c4af64bU,
  0x3c83d7893d3cfb42U, 0x3ce7b46b3d27bba4U, 0xb89d1b423d1f3884U, 0x3b47897b3d8be974U,
  0x3e1219073d5e8dccU, 0xbd181149bd079c53U, 0xba195ff53d300142U, 0x3c974d413d12b9e6U,
  0x3cb01b3fbd6ebfebU, 0xbdfa1a6abb99cb23U, 0x3d0f6bc93d3d7c00U, 0x3d51b5cfbce9b430U,
  0x3c1aac1a3c2a1b3fU, 0x3d813df93c4bcdf1U, 0x3d5cfdd73c5efb9eU, 0x3d3009ec3d3dfff5U,
  0xbd1c8d423cdccf02U, 0x3cc1d8193ce18efdU, 0xbc14973bbc6813d4U, 0x3d972a4e3d604a3fU,
  0x3d363a543cb9a9b6U, 0xbc1cdb5f3d84b45fU, 0x3d2f953f3a64813cU, 0xbcccd100bc3e76a7U,
  0xbd4579f93d919bbbU, 0xbccc2b23bc53f4e2U, 0xbce6e8a53c35b97cU, 0x3b4c36153b2e49e5U,
  0xbdd266b6bd1448c2U, 0xbbfb65b7bd746f85U, 0xbccdcb0cbc886f13U, 0x3d73fd60bc8d5b03U,
  0xbc4d8044bc1a25ecU, 0x3da6b2ab3c860c38U, 0x3d2b82a53d192d48U, 0xbd12f4c2bd1dfea2U,
  0xbd6e7c293dc5cef2U, 0xbd5916303d3ab382U, 0xbd676371bda73960U, 0xbc07da6fbc0c60b5U,
  0x3cc181453d81cdc6U, 0x3a8cfd4c3d90509fU, 0xbd72cc64bc975728U, 0xb95ba454bcef0984U,
